node {
  name: "global_step/Initializer/zeros"
  op: "Const"
  attr {
    key: "_class"
    value {
      list {
        s: "loc:@global_step"
      }
    }
  }
  attr {
    key: "_output_shapes"
    value {
      list {
        shape {
        }
      }
    }
  }
  attr {
    key: "dtype"
    value {
      type: DT_INT64
    }
  }
  attr {
    key: "value"
    value {
      tensor {
        dtype: DT_INT64
        tensor_shape {
        }
        int64_val: 0
      }
    }
  }
}
node {
  name: "global_step"
  op: "VariableV2"
  attr {
    key: "_class"
    value {
      list {
        s: "loc:@global_step"
      }
    }
  }
  attr {
    key: "_output_shapes"
    value {
      list {
        shape {
        }
      }
    }
  }
  attr {
    key: "container"
    value {
      s: ""
    }
  }
  attr {
    key: "dtype"
    value {
      type: DT_INT64
    }
  }
  attr {
    key: "shape"
    value {
      shape {
      }
    }
  }
  attr {
    key: "shared_name"
    value {
      s: ""
    }
  }
}
node {
  name: "global_step/Assign"
  op: "Assign"
  input: "global_step"
  input: "global_step/Initializer/zeros"
  attr {
    key: "T"
    value {
      type: DT_INT64
    }
  }
  attr {
    key: "_class"
    value {
      list {
        s: "loc:@global_step"
      }
    }
  }
  attr {
    key: "_output_shapes"
    value {
      list {
        shape {
        }
      }
    }
  }
  attr {
    key: "use_locking"
    value {
      b: true
    }
  }
  attr {
    key: "validate_shape"
    value {
      b: true
    }
  }
}
node {
  name: "global_step/read"
  op: "Identity"
  input: "global_step"
  attr {
    key: "T"
    value {
      type: DT_INT64
    }
  }
  attr {
    key: "_class"
    value {
      list {
        s: "loc:@global_step"
      }
    }
  }
  attr {
    key: "_output_shapes"
    value {
      list {
        shape {
        }
      }
    }
  }
}
node {
  name: "global_step/IsVariableInitialized"
  op: "IsVariableInitialized"
  input: "global_step"
  attr {
    key: "_class"
    value {
      list {
        s: "loc:@global_step"
      }
    }
  }
  attr {
    key: "_output_shapes"
    value {
      list {
        shape {
        }
      }
    }
  }
  attr {
    key: "dtype"
    value {
      type: DT_INT64
    }
  }
}
node {
  name: "global_step/cond/Switch"
  op: "Switch"
  input: "global_step/IsVariableInitialized"
  input: "global_step/IsVariableInitialized"
  attr {
    key: "T"
    value {
      type: DT_BOOL
    }
  }
  attr {
    key: "_output_shapes"
    value {
      list {
        shape {
        }
        shape {
        }
      }
    }
  }
}
node {
  name: "global_step/cond/switch_t"
  op: "Identity"
  input: "global_step/cond/Switch:1"
  attr {
    key: "T"
    value {
      type: DT_BOOL
    }
  }
  attr {
    key: "_output_shapes"
    value {
      list {
        shape {
        }
      }
    }
  }
}
node {
  name: "global_step/cond/switch_f"
  op: "Identity"
  input: "global_step/cond/Switch"
  attr {
    key: "T"
    value {
      type: DT_BOOL
    }
  }
  attr {
    key: "_output_shapes"
    value {
      list {
        shape {
        }
      }
    }
  }
}
node {
  name: "global_step/cond/pred_id"
  op: "Identity"
  input: "global_step/IsVariableInitialized"
  attr {
    key: "T"
    value {
      type: DT_BOOL
    }
  }
  attr {
    key: "_output_shapes"
    value {
      list {
        shape {
        }
      }
    }
  }
}
node {
  name: "global_step/cond/read"
  op: "Identity"
  input: "global_step/cond/read/Switch:1"
  attr {
    key: "T"
    value {
      type: DT_INT64
    }
  }
  attr {
    key: "_output_shapes"
    value {
      list {
        shape {
        }
      }
    }
  }
}
node {
  name: "global_step/cond/read/Switch"
  op: "RefSwitch"
  input: "global_step"
  input: "global_step/cond/pred_id"
  attr {
    key: "T"
    value {
      type: DT_INT64
    }
  }
  attr {
    key: "_class"
    value {
      list {
        s: "loc:@global_step"
      }
    }
  }
  attr {
    key: "_output_shapes"
    value {
      list {
        shape {
        }
        shape {
        }
      }
    }
  }
}
node {
  name: "global_step/cond/Switch_1"
  op: "Switch"
  input: "global_step/Initializer/zeros"
  input: "global_step/cond/pred_id"
  attr {
    key: "T"
    value {
      type: DT_INT64
    }
  }
  attr {
    key: "_class"
    value {
      list {
        s: "loc:@global_step"
      }
    }
  }
  attr {
    key: "_output_shapes"
    value {
      list {
        shape {
        }
        shape {
        }
      }
    }
  }
}
node {
  name: "global_step/cond/Merge"
  op: "Merge"
  input: "global_step/cond/Switch_1"
  input: "global_step/cond/read"
  attr {
    key: "N"
    value {
      i: 2
    }
  }
  attr {
    key: "T"
    value {
      type: DT_INT64
    }
  }
  attr {
    key: "_output_shapes"
    value {
      list {
        shape {
        }
        shape {
        }
      }
    }
  }
}
node {
  name: "global_step/add/y"
  op: "Const"
  attr {
    key: "_output_shapes"
    value {
      list {
        shape {
        }
      }
    }
  }
  attr {
    key: "dtype"
    value {
      type: DT_INT64
    }
  }
  attr {
    key: "value"
    value {
      tensor {
        dtype: DT_INT64
        tensor_shape {
        }
        int64_val: 0
      }
    }
  }
}
node {
  name: "global_step/add"
  op: "Add"
  input: "global_step/cond/Merge"
  input: "global_step/add/y"
  attr {
    key: "T"
    value {
      type: DT_INT64
    }
  }
  attr {
    key: "_output_shapes"
    value {
      list {
        shape {
        }
      }
    }
  }
}
node {
  name: "Const"
  op: "Const"
  device: "/device:CPU:0"
  attr {
    key: "_output_shapes"
    value {
      list {
        shape {
          dim {
            size: 784
          }
        }
      }
    }
  }
  attr {
    key: "dtype"
    value {
      type: DT_UINT8
    }
  }
  attr {
    key: "value"
    value {
      tensor {
        dtype: DT_UINT8
        tensor_shape {
          dim {
            size: 784
          }
        }
        tensor_content: "\000\000\000\000\000\000\000\000\000\000\000\000\000\000\000\000\000\000\000\000\000\000\000\000\000\000\000\000\000\000\000\000\000\000\000\000\000\000\000\000\000\000\000\000!]b\036\000\000\000\000\000\000\000\000\000\000\000\000\000\000\000\000\000\000\000\000\000\000\000\241\377\377\377\377\321O\000\000\000\000\000\000\000\000\000\000\000\000\000\000\000\000\000\000\000\000?\377\211%#j\316\377\231\000\000\000\000\000\000\000\000\000\000\000\000\000\000\000\000\000\000\000\266\342\005\000\000\000\003\203\377\\\000\000\000\000\000\000\000\000\000\000G\257\347\355\327\252B.\376r\000\000\000\000\000\002\271\361\"\000\000\000\000\000\000\000\000\221\377\333\231\215\241\344\377\364\363\r\000\000\000\000\000\000\031\352\270\000\000\000\000\000\000\000i\377\210\004\000\000\000\005W\304\357\004\000\000\000\000\000\000\000\200\371\n\000\000\000\000\0006\370\253\001\000\000\000\000\000\000\000\004\000\000\000\000\000\000\000\000E\377?\000\000\000\000\006\340\330\r\000\000\000\000\000\000\000\000\000\000\000\000\000\000\000\000\000\016\377p\000\000\000\000P\377B\000\000\000\000\000\000\000\000\000\000\000\000\000\000\000\000\000\000\014\377l\000\000\000\000h\377\025\000\000\000\000\000\000\000\000\000\000\000\000\000\000\000\000\000\000\030\377a\000\000\000\000?\377G\000\000\000\000\000\000\000\000\000\000\000\000\000\000\000\000\000\0009\377E\000\000\000\000\004\351\235\000\000\000\000\000\000\000\000\000\000\000\000\000\000\000\000\000\000_\377\037\000\000\000\000\000\230\357\021\000\000\000\000\000\000\000\000\000\000\000\000\000\000\000\000\000\227\355\002\000\000\000\000\000*\371\246\004\000\000\000\000\000\000\000\000\000\000\000\000\000\000\000\003\350\241\000\000\000\000\000\000\000p\376\275\023\000\000\000\000\000\000\000\000\000\000\000\000\000\000?\377M\000\000\000\000\000\000\000\000T\364\335,\000\000\000\000\000\000\000\000\000\000\000\000\000\223\362\010\000\000\000\000\000\000\000\000\0001\341\362N\000\000\000\000\000\000\000\000\000\000\000\000\336\247\000\000\000\000\000\000\000\000\000\000\000\026\303\375V\000\000\000\000\000\000\000\000\000\000\000\344\224\000\000\000\000\000\000\000\000\000\000\000\000\006\275\360 \000\000\000\000\000\000\000\000\000\000\313\264\000\000\000\000\000\000\000\000\000\000\000\000\000\033\353\304\001\000\000\000\0009\004\000\000\000\224\354\001\000\000\000\000\000\000\000\000\000\000\000\000\000X\377P\000\000\000f\377\266\r\000\000g\377\037\000\000\000\000\000\000\000\000\000\000\000\000\000\002\325\313\000\000\"\363\320\370\321\035\000\265\341\004\000\000\000\000\000\000\000\000\000\000\000\000\000\000[\377~\020\302\354\031=\354\366\313\375v\000\000\000\000\000\000\000\000\000\000\000\000\000\000\000\003\233\377\377\377V\000\000 \212\263\214\r\000\000\000\000\000\000\000\000\000\000\000\000\000\000\000\000\0007qM\000\000\000\000\000\000\000\000\000\000\000\000\000\000\000\000\000\000\000\000\000\000\000\000\000\000\000\000\000\000\000\000\000\000\000\000\000\000\000\000"
      }
    }
  }
}
node {
  name: "Reshape/shape"
  op: "Const"
  device: "/device:CPU:0"
  attr {
    key: "_output_shapes"
    value {
      list {
        shape {
          dim {
            size: 2
          }
        }
      }
    }
  }
  attr {
    key: "dtype"
    value {
      type: DT_INT32
    }
  }
  attr {
    key: "value"
    value {
      tensor {
        dtype: DT_INT32
        tensor_shape {
          dim {
            size: 2
          }
        }
        tensor_content: "\034\000\000\000\034\000\000\000"
      }
    }
  }
}
node {
  name: "Reshape"
  op: "Reshape"
  input: "Const"
  input: "Reshape/shape"
  device: "/device:CPU:0"
  attr {
    key: "T"
    value {
      type: DT_UINT8
    }
  }
  attr {
    key: "Tshape"
    value {
      type: DT_INT32
    }
  }
  attr {
    key: "_output_shapes"
    value {
      list {
        shape {
          dim {
            size: 28
          }
          dim {
            size: 28
          }
        }
      }
    }
  }
}
node {
  name: "Cast"
  op: "Cast"
  input: "Reshape"
  device: "/device:CPU:0"
  attr {
    key: "DstT"
    value {
      type: DT_HALF
    }
  }
  attr {
    key: "SrcT"
    value {
      type: DT_UINT8
    }
  }
  attr {
    key: "_output_shapes"
    value {
      list {
        shape {
          dim {
            size: 28
          }
          dim {
            size: 28
          }
        }
      }
    }
  }
}
node {
  name: "Const_1"
  op: "Const"
  device: "/device:CPU:0"
  attr {
    key: "_output_shapes"
    value {
      list {
        shape {
          dim {
            size: 784
          }
        }
      }
    }
  }
  attr {
    key: "dtype"
    value {
      type: DT_UINT8
    }
  }
  attr {
    key: "value"
    value {
      tensor {
        dtype: DT_UINT8
        tensor_shape {
          dim {
            size: 784
          }
        }
        tensor_content: "\000\000\000\000\000\000\000\000\000\000\000\000\000\000\000\000\000\000\000\000\000\000\000\000\000\000\000\000\000\000\000\000\000\000\000\000\000\000\000\000\000\000\000\000\000\000\000\000\000\000\000\000\000\000\000\000\000\000\000\000\000\000\000\000\000\000\000\000\000\000\000\000\000\000\000\000\000\000\000\000\000\000\000\000\000\000\000\000\000\000\000\000\000\000\000\000\000\000\000\000\000\000\000\000\000\000\000\000\000\000\000\000\000\000\000\000\000\000\000\000\000\000\000\000\000\000\000\000\000\000\000\000\000\000\000\000\000\000\000\000\000\000\000\000\000\000\000\000\000\000\000\000\000\000\000\000\000\000\000\000\000\000\000\000\000\000\000\000\000\000\000\000\000\000\000\000\000\000\000\000\000\000\000\000\000\000\000\000\000\000\000\000\000\000\000\000\000\000\000\000\000\000\000\000\000\002\004\000\000\000\000\017H\200\271\322\013\000\000\000\000\000\000\000\000\000\000\000\000\000\000\000\000\213\356\214D\231\324\375\377\371\307\204\003\000\000\000\000\000\000\000\000\000\000\000\000\000\000\000\000%\240\367\376\371\256s;\010\000\000\000\000\000\000\000\000\000\000\000\000\000\000\000\022\275\322w\000\000\024\323\331\000\000\000\000\000\000\000\000\000\000\000\000\000\000\000\000\000\000\000E\377\317\377h\000\000\245\324\000\000\000\000\000\0000uwo\031\000\000\000\000\000\000\0011\213\377\270\375\365\024\000\234\335\000\000\000\000\005;\372\377\377\377\370Z\000\000\000\0004\321\377\377\371\327\243\375\376\377\377\377\377\377\377\377\366\377\377\256\000\034\267\372+\000\000\r\353\333Z\"\003\000\000\314\330w\301\367ww\236\377\316N)\005\000\000\017\377v\000\000P\3778\000\000\000\000\000\305\263\000B\222\000\000\253\343\003\000\000\000\000\000\000\376{\000\000v\377\005\000\000\000\000\000\313\256\000\000\000\000\000\346\230\000\000\000\000\000\000\034\377g\000\000l\377\014\000\000\000\000\000\320\251\000\000\000\000\000\332\253\000\000\000\000\000\000f\377#\000\000O\377x\000\000\000\000\000\342\235\000\000\000\000\000\211\376\242W<+\032\037\305\330\000\000\000\000\237\377\336\223\210\210\225\377]\000\000\000\000\000\006\223\347\377\377\377\377\377\371h\000\000\000\000\003Y\256\351\356\356\356\261\010\000\000\000\000\000\000\000\002(=N_j\037\000\000\000\000\000\000\000\000\000\000\000\000\000\000\000\000\000\000\000\000\000\000\000\000\000\000\000\000\000\000\000\000\000\000\000\000\000\000\000\000\000\000\000\000\000\000\000\000\000\000\000\000\000\000\000\000\000\000\000\000\000\000\000\000\000\000\000\000\000\000\000\000\000\000\000\000\000\000\000\000\000\000\000\000\000\000\000\000\000\000\000\000\000\000\000\000\000\000\000\000\000\000\000\000\000\000\000\000\000\000\000\000\000\000\000\000\000\000\000\000\000\000\000\000\000\000\000\000\000\000\000\000\000\000\000\000\000\000\000\000\000\000\000\000\000\000\000\000\000\000\000\000\000\000\000\000\000\000\000\000\000\000\000\000\000\000\000\000\000\000\000\000\000\000\000\000\000\000\000\000\000\000\000\000\000\000\000\000\000\000\000\000\000\000\000\000\000\000\000"
      }
    }
  }
}
node {
  name: "Reshape_1/shape"
  op: "Const"
  device: "/device:CPU:0"
  attr {
    key: "_output_shapes"
    value {
      list {
        shape {
          dim {
            size: 2
          }
        }
      }
    }
  }
  attr {
    key: "dtype"
    value {
      type: DT_INT32
    }
  }
  attr {
    key: "value"
    value {
      tensor {
        dtype: DT_INT32
        tensor_shape {
          dim {
            size: 2
          }
        }
        tensor_content: "\034\000\000\000\034\000\000\000"
      }
    }
  }
}
node {
  name: "Reshape_1"
  op: "Reshape"
  input: "Const_1"
  input: "Reshape_1/shape"
  device: "/device:CPU:0"
  attr {
    key: "T"
    value {
      type: DT_UINT8
    }
  }
  attr {
    key: "Tshape"
    value {
      type: DT_INT32
    }
  }
  attr {
    key: "_output_shapes"
    value {
      list {
        shape {
          dim {
            size: 28
          }
          dim {
            size: 28
          }
        }
      }
    }
  }
}
node {
  name: "Cast_1"
  op: "Cast"
  input: "Reshape_1"
  device: "/device:CPU:0"
  attr {
    key: "DstT"
    value {
      type: DT_HALF
    }
  }
  attr {
    key: "SrcT"
    value {
      type: DT_UINT8
    }
  }
  attr {
    key: "_output_shapes"
    value {
      list {
        shape {
          dim {
            size: 28
          }
          dim {
            size: 28
          }
        }
      }
    }
  }
}
node {
  name: "Const_2"
  op: "Const"
  device: "/device:CPU:0"
  attr {
    key: "_output_shapes"
    value {
      list {
        shape {
          dim {
            size: 784
          }
        }
      }
    }
  }
  attr {
    key: "dtype"
    value {
      type: DT_UINT8
    }
  }
  attr {
    key: "value"
    value {
      tensor {
        dtype: DT_UINT8
        tensor_shape {
          dim {
            size: 784
          }
        }
        tensor_content: "\000\000\000\000\000\000\000\000\000\000\000\000\000\000\000\000\000\000\000\000\000\000\000\000\000\000\000\000\000\000\000\000\000\000\000\000\000\000\000\000\000\000\000\000\000\000\000\000\000\000\000\000\000\000\000\000\000\000\000\000\000\000\000\000\000\000\000\000\000\000\000\000\000\000\000\000\000\000\000\000\000\000\000\000\000\000\000\000\000\000\000\000\000\000\000\000\000\000\000\000\000\000\000\000\000\000\000\000\000\000\000\000\000\000\000\000\000\000\000\000\000\000\000\000\000\000\000\000\000\000\000\000\000\000\000\000\000\000\000\000\000\000\000\000\000\000\000\000\000\000\000\000\000\000\000\000\000\000\000\000\000\000\000\000\000\000\000\000\000\000\000\000\000\000\000\000\000\000\000\000\000\000\000\000\000\000\000\000\000\000\000\000\000\000\000\000\000\000\000\000\000\000\000\000\000\000\020RE\000\000\000\000\000\000\000\000\000\000\000\000\000\000\000\000\000\000\000\000\000\000\000\000D\360\377\374\016\000\000\000\000\000\000\000\000\000\000\000\000\000\000\000\000\000\000\000\000\000\000\000\217\326\301\324\000\000\000\000\000\000\000\000\000\000\000\000\000\000\000\000\000\000\023\022\000\000\000\000\005\013}\374\013\000\000\000\000\002\226\273\267M\000\000\000\000\000\000\000.\366\377\375\343\254\261\341\364\377\377\314\224iA$~\377\322\331\377\310(\000\000\000\000\000\306\357\376\217\324\377\367\236\205|\327\305\352\377\377\377\377\357\323\002Z\344\335\022\000\000\000\'\377p\353\344\377\335\376}\000\000\000\000\000\023g\377\300\211\377?\t`\370\263\000\000\000g\377\033\244\377\274\002\260\326\000\000\000\000\000\000\177\371\013\006\354\356\356\377\376\376\032\000\000g\377j\376\335\365&\235\353\000\000\000\000\000\000\236\336\000\003\363\377\333E<\377_\000\000>\377\375\260\027\350\315\356\234\000\000\000\000\000\000\206\364\001~\377\272\370\0325\377T\000\000\000\226\376\2028\220\372\345%\000\000\000\000\000\000P\377`\373\233\033\371\220\271\370\r\000\000\000\004\253\375\377\377\317\036\000\000\000\000\000\000\000\003\313\361\2446!\267\367\370^\000\000\000\000\000\000\027K\"\000\000\000\000\000\000\000\000\000\000\027\300\375\377\377\377\351;\000\000\000\000\000\000\000\000\000\000\000\000\000\000\000\000\000\000\000\000\000\000\024W^3\010\000\000\000\000\000\000\000\000\000\000\000\000\000\000\000\000\000\000\000\000\000\000\000\000\000\000\000\000\000\000\000\000\000\000\000\000\000\000\000\000\000\000\000\000\000\000\000\000\000\000\000\000\000\000\000\000\000\000\000\000\000\000\000\000\000\000\000\000\000\000\000\000\000\000\000\000\000\000\000\000\000\000\000\000\000\000\000\000\000\000\000\000\000\000\000\000\000\000\000\000\000\000\000\000\000\000\000\000\000\000\000\000\000\000\000\000\000\000\000\000\000\000\000\000\000\000\000\000\000\000\000\000\000\000\000\000\000\000\000\000\000\000\000\000\000\000\000\000\000\000\000\000\000\000\000\000\000\000\000\000\000\000\000\000\000\000\000\000\000\000\000\000\000\000\000\000\000\000\000\000\000\000\000\000\000\000\000\000\000\000\000\000\000\000\000\000\000\000\000\000"
      }
    }
  }
}
node {
  name: "Reshape_2/shape"
  op: "Const"
  device: "/device:CPU:0"
  attr {
    key: "_output_shapes"
    value {
      list {
        shape {
          dim {
            size: 2
          }
        }
      }
    }
  }
  attr {
    key: "dtype"
    value {
      type: DT_INT32
    }
  }
  attr {
    key: "value"
    value {
      tensor {
        dtype: DT_INT32
        tensor_shape {
          dim {
            size: 2
          }
        }
        tensor_content: "\034\000\000\000\034\000\000\000"
      }
    }
  }
}
node {
  name: "Reshape_2"
  op: "Reshape"
  input: "Const_2"
  input: "Reshape_2/shape"
  device: "/device:CPU:0"
  attr {
    key: "T"
    value {
      type: DT_UINT8
    }
  }
  attr {
    key: "Tshape"
    value {
      type: DT_INT32
    }
  }
  attr {
    key: "_output_shapes"
    value {
      list {
        shape {
          dim {
            size: 28
          }
          dim {
            size: 28
          }
        }
      }
    }
  }
}
node {
  name: "Cast_2"
  op: "Cast"
  input: "Reshape_2"
  device: "/device:CPU:0"
  attr {
    key: "DstT"
    value {
      type: DT_HALF
    }
  }
  attr {
    key: "SrcT"
    value {
      type: DT_UINT8
    }
  }
  attr {
    key: "_output_shapes"
    value {
      list {
        shape {
          dim {
            size: 28
          }
          dim {
            size: 28
          }
        }
      }
    }
  }
}
node {
  name: "Const_3"
  op: "Const"
  device: "/device:CPU:0"
  attr {
    key: "_output_shapes"
    value {
      list {
        shape {
          dim {
            size: 784
          }
        }
      }
    }
  }
  attr {
    key: "dtype"
    value {
      type: DT_UINT8
    }
  }
  attr {
    key: "value"
    value {
      tensor {
        dtype: DT_UINT8
        tensor_shape {
          dim {
            size: 784
          }
        }
        tensor_content: "\000\000\000\000\000\000\000\000\000\000\000\000\000\000\000\000\000\000\000\000\000\000\000\000\000\000\000\000\000\000\000\000\000\000\000\000\000\000\002Mo\"\000\000\000\000\013\000\000\000\000\000\000\000\000\000\000\000\000\000\000\000\000\000\000\000r\377\377\361Z\003S\305\372\025\000\000\000\000\000\000\000\000\000\000\000\000\000\000\000\000\000\000\327\272\"\274\377\342\377\325a\000\000\000\000\000\000\000\000\000\000\000\000\000\000\000\000\000\000\000\322\352j[\371\344L\001\000\000\000\000\000\000\000\000\000\000\000\000\000\000\000\000\000\000\000\000$\303\377\374\364!E\212\314\265K\000\000\000\000\000\000\000\000\000\000\000\000\000\000\000\000h\347\311\244\363\341\364\377\364\270\332\375X\000\000\000\000\000\000\000\000\000\000\000\000\000\000\216\377\272\266\354\377\377\264A\007\000\005\312\320\000\000\000\000\000\000\000\000\000\000\000\000\0005\376\213\000\000 \353\242\002\000\000\000\000\262\321\000\000\000\000\000\000\000\000\000\000\000\000\000\211\365\t\000\000\000\021\004\000\000\000\000%\373\204\000\000\000\000\000\000\000\000\000\000\000\000\000\327\261\000\000\000\000\000\000\000\000\000\000\246\361\022\000\000\000\000\000\000\000\000\000\000\000\000$\377c\000\000\000\000\000\000\000\000\000u\377x\000\000\000\000\000\000\000\000\000\000\000\000\000[\377\"\000\000\000\000\000\000\000\000^\376\235\001\000\000\000\000\000\000\000\000\000\000\000\000\000\203\366\002\000\000\000\000\000\000\000B\372\263\004\000\000\000\000\000\000\000\000\000\000\000\000\000\000\253\321\000\000\000\000\000\000\000\020\343\320\n\000\000\000\000\000\000\000\000\000\000\000\000\000\000\000\300\271\000\000\000\000\000\000\000\202\372.\000\000\000\000\000\000\000\000\000\000\000\000\000\000\000\000\307\261\000\000\000\000\000\000\000r\375M\000\000\000\000\000\000\000\000\000\000\000\000\000\000\000\000\317\252\000\000\000\000\000\000\000\n\302\367A\000\000\000\000\000\000\000\000\000\000\000\000\000\000\000\307\271\000\000\000\000\000\000\000\000\017\315\3626\000\000\000\000\000\000\000\000\000\000\000\000\000\000\213\364\022\000\000\000\000\000\000\000\000\025\327\340\010\000\000\000\000\000\000\000\000\000\000\000\000\000&\367\237\000\000\000\000\000\000\000\000\000:\377h\000\000\000\000\000\000\000\000\000\000\000\000\000\000|\376B\000\000\000\000\000\000\000\000\000\345\224\000\000\000\000\000\000\000\000\000\000\000\000\000\000\006\323\340&\000\000\000\000\000\000\000\013\360\220\000\000\000\000\000\000\000\000\000\000\000\000\000\000\000+\344\355P\001\000\000\000\000\017\301\3733\000\000\000\000\000\000\000\000\000\000\000\000\000\000\000\000\033\313\377\321Z\016)e\345\367O\000\000\000\000\000\000\000\000\000\000\000\000\000\000\000\000\000\000\003V\316\377\377\377\377\2771\000\000\000\000\000\000\000\000\000\000\000\000\000\000\000\000\000\000\000\000\000\000EoQ/\000\000\000\000\000\000\000\000\000\000\000\000\000\000\000\000\000\000\000\000\000\000\000\000\000\000\000\000\000\000\000\000\000\000\000\000\000\000\000"
      }
    }
  }
}
node {
  name: "Reshape_3/shape"
  op: "Const"
  device: "/device:CPU:0"
  attr {
    key: "_output_shapes"
    value {
      list {
        shape {
          dim {
            size: 2
          }
        }
      }
    }
  }
  attr {
    key: "dtype"
    value {
      type: DT_INT32
    }
  }
  attr {
    key: "value"
    value {
      tensor {
        dtype: DT_INT32
        tensor_shape {
          dim {
            size: 2
          }
        }
        tensor_content: "\034\000\000\000\034\000\000\000"
      }
    }
  }
}
node {
  name: "Reshape_3"
  op: "Reshape"
  input: "Const_3"
  input: "Reshape_3/shape"
  device: "/device:CPU:0"
  attr {
    key: "T"
    value {
      type: DT_UINT8
    }
  }
  attr {
    key: "Tshape"
    value {
      type: DT_INT32
    }
  }
  attr {
    key: "_output_shapes"
    value {
      list {
        shape {
          dim {
            size: 28
          }
          dim {
            size: 28
          }
        }
      }
    }
  }
}
node {
  name: "Cast_3"
  op: "Cast"
  input: "Reshape_3"
  device: "/device:CPU:0"
  attr {
    key: "DstT"
    value {
      type: DT_HALF
    }
  }
  attr {
    key: "SrcT"
    value {
      type: DT_UINT8
    }
  }
  attr {
    key: "_output_shapes"
    value {
      list {
        shape {
          dim {
            size: 28
          }
          dim {
            size: 28
          }
        }
      }
    }
  }
}
node {
  name: "Const_4"
  op: "Const"
  device: "/device:CPU:0"
  attr {
    key: "_output_shapes"
    value {
      list {
        shape {
          dim {
            size: 784
          }
        }
      }
    }
  }
  attr {
    key: "dtype"
    value {
      type: DT_UINT8
    }
  }
  attr {
    key: "value"
    value {
      tensor {
        dtype: DT_UINT8
        tensor_shape {
          dim {
            size: 784
          }
        }
        tensor_content: "\000\000\000\000\000\000\000\000\000\000\000\000\000\000\000\000\000\000\000\000\000\000\000\000\000\000\000\000\000\000\000\000\000\000\000\000\000\000\000\000\000\000\000\000\000\000\000\000\000\000\000\000\000\000\000\000\000\000\000\000\000\000\000\000\000\000\000\000\000\000\000\000\000\000\000\000\000\000\000\000\000\000\000\000\000\000\000\000\000\000\000\000\000\000\000\000\000\000\000\000\000\000\000\000\000\000\000\000\000\000\000\000\000\000\000\000\000\000\000\000\000\000\000\000\000\000\000\000\000\000\000\000\000\000\000\000\000\000\000\000\000\000\000\000\000\000\000\000\007\003\000\000\000\000\000\000\000\000\000\000\000\000\000\000\000\000\000\000\000\000\000\000\000\000\000\017\327\361P\000\000\000\000\000\000\000\000\000\000\000\000\000\000\000\000\000\000\000\000\000\000\000\000\205\377\377\272\000\000\000\006\000\000\000\000\000\000\000\000\000\000\000\000\000\000\000\000\000\000\000\000R\340\377\362\021\000K\371?\000\000\000\000\000\000\000\000\000\000\000\000\000\000\000\000\000\000\000\000<\377\373\243\036\353\377\311\001\000\000\000\000\000\000\000\000\000\000\000\000\000\000\000\000\010k\0251\377\231\377\364\355y\377R\000\000\000\000\000\000\000\000\000\000\000\000\000\000\000\026\270\377\356k\377\313\377\377[\002\317\326\003\000\000\000\016(}\236\013\000\000\000\000\004r\360\375\343\323\375\377\361l\032\000\000I\377y\000\000\000\246\377\377\352\021\000\000\000\000\212\377\265\374\233\363\375\323\017\000\000\000\000\000\244\377\234\010\000\317\377\330\376D\000\000\000 \371\371\321\377\372\321\350\221\000\000\000\000\000\000\001y\374\340\234\377\377\224\377\324\000\000\000u\377\377\377\377\377\374\372{\000\000\000\000\000\000\000\000@\260\374\376\377\346\341\374\001\000\000y\376\230\377\377\314\253\375\"\000\000\000\000\000\000\000\000\000-\367\377\377\377\326\357\000\000\000+\361\373\352\373\375\377\241\000\000\000\000\000\000\000\000\000\000\026\342\372\377\377\376\360\002\000\000\000\024\206\354\371\314\201\004\000\000\000\000\000\000\000\000\000\000\000\235\361\377\253\371\377c\000\000\000\000\000\246\265\000\000\000\000\000\000\000\000\000\000\000\000\000\000\"\345\377\377\334^\017\000\000\000\000\000\013\r\000\000\000\000\000\000\000\000\000\000\000\000\000\000\000=\377\220\006\000\000\000\000\000\000\000\000\000\000\000\000\000\000\000\000\000\000\000\000\000\000\000\000\025\370N\000\000\000\000\000\000\000\000\000\000\000\000\000\000\000\000\000\000\000\000\000\000\000\000\000\000\n\000\000\000\000\000\000\000\000\000\000\000\000\000\000\000\000\000\000\000\000\000\000\000\000\000\000\000\000\000\000\000\000\000\000\000\000\000\000\000\000\000\000\000\000\000\000\000\000\000\000\000\000\000\000\000\000\000\000\000\000\000\000\000\000\000\000\000\000\000\000\000\000\000\000\000\000\000\000\000\000\000\000\000\000\000\000\000\000\000\000\000\000\000\000\000\000\000\000\000\000\000\000\000\000\000\000\000\000\000\000\000\000\000\000\000\000\000\000\000\000\000\000\000\000\000\000\000\000\000\000\000\000\000\000\000\000\000\000\000\000\000\000\000\000\000"
      }
    }
  }
}
node {
  name: "Reshape_4/shape"
  op: "Const"
  device: "/device:CPU:0"
  attr {
    key: "_output_shapes"
    value {
      list {
        shape {
          dim {
            size: 2
          }
        }
      }
    }
  }
  attr {
    key: "dtype"
    value {
      type: DT_INT32
    }
  }
  attr {
    key: "value"
    value {
      tensor {
        dtype: DT_INT32
        tensor_shape {
          dim {
            size: 2
          }
        }
        tensor_content: "\034\000\000\000\034\000\000\000"
      }
    }
  }
}
node {
  name: "Reshape_4"
  op: "Reshape"
  input: "Const_4"
  input: "Reshape_4/shape"
  device: "/device:CPU:0"
  attr {
    key: "T"
    value {
      type: DT_UINT8
    }
  }
  attr {
    key: "Tshape"
    value {
      type: DT_INT32
    }
  }
  attr {
    key: "_output_shapes"
    value {
      list {
        shape {
          dim {
            size: 28
          }
          dim {
            size: 28
          }
        }
      }
    }
  }
}
node {
  name: "Cast_4"
  op: "Cast"
  input: "Reshape_4"
  device: "/device:CPU:0"
  attr {
    key: "DstT"
    value {
      type: DT_HALF
    }
  }
  attr {
    key: "SrcT"
    value {
      type: DT_UINT8
    }
  }
  attr {
    key: "_output_shapes"
    value {
      list {
        shape {
          dim {
            size: 28
          }
          dim {
            size: 28
          }
        }
      }
    }
  }
}
node {
  name: "Const_5"
  op: "Const"
  device: "/device:CPU:0"
  attr {
    key: "_output_shapes"
    value {
      list {
        shape {
          dim {
            size: 784
          }
        }
      }
    }
  }
  attr {
    key: "dtype"
    value {
      type: DT_UINT8
    }
  }
  attr {
    key: "value"
    value {
      tensor {
        dtype: DT_UINT8
        tensor_shape {
          dim {
            size: 784
          }
        }
        tensor_content: "\000\000\000\000\000\000\000\000\000\000\000\000\000\000\000\000\000\000\000\000\000\000\000\000\000\000\000\000\000\000\000\000\000\000\000\000\000\000\000\000\000$O\000\000\000\000\000\000\000\000\000\000\000\000\000\000\000\000\000\000\000\000\000\000\000\000\000\000\237\334\000\000\000\000\000\000\000\000\000\000\000\000\000\000\000\000\000\000\000\000\000\000\000\000\000\000\332\247\000\000\000\000\000\000\000\000\000\000\000\000\000\000\000\000\000\000\000\000\000\000\000\000\000\025\376o\0007\220\253\230\006\000\000\000\000\000\000\000\000\000\000\000\000\000\000\000\000\000\000\0003\377Q\267\377\361\321\377o\000\000\000\000\000\000\000\000\000\000\000\000\000\000\000\000\000\000\0003\377\325\371j\tr\377@\000\000\000\000\000\000\000\000\000\000\000\000\000\000\016h\210\227\244\301\377\376L\000\\\375\246\001\000\000\000\000\000\000\000\000\000\000\000\000\000\n\327\377\356\341\335\323\377\356\267\314\375\267\005\000\000\000\000\000\000\000\000\000\000\000\000\000\000\177\374B\0009\377\320\377\375\367\376\377\350C\000\000\000\000\000\000\000\000\000\000\000\000\000\001\340\260\000\000\010\245\325\375\310\233\202@\316\375Z\000\000\000\000\000\000\000\000\000\000\000\000=\377T\000\000\000\000\000\000\000\000\000\000\010\270\362\"\000\000\000\000\000\000\000\000\000\000\000\231\357\010\000\000\000\000\000\000\000\000\000\000\000\030\352\266\000\000\000\000\000\000\000\000\000\000\000\335\243\000\000\000\000\000\000\000\000\000\000\000\000\000s\376\'\000\000\000\000\000\000\000\000\000\006\374y\000\000\000\000\000\000\000\000\000\000\000\000\000\020\365\220\000\000\000\000\000\000\000\000\000\035\377]\000\000\000\000\000\000\000\000\000\000\000\000\000\000\235\357\007\000\000\000\000\000\000\000\000\037\377[\000\000\000\000\000\000\000\000\000\000\000\000\000\000c\377\027\000\000\000\000\000\000\000\000\037\377[\000\000\000\000\000\000\000\000\000\000\000\000\000\000t\377\007\000\000\000\000\000\000\000\000\030\377r\000\000\000\000\000\000\000\000\000\000\000\000\000\000\202\366\000\000\000\000\000\000\000\000\000\000\276\341\006\000\000\000\000\000\000\000\000\000\000\000\000\000\222\345\000\000\000\000\000\000\000\000\000\000B\377a\000\000\000\000\000\000\000\000\000\000\000\000\000\263\320\000\000\000\000\000\000\000\000\000\000\000\305\3448\000\000\000\000\000\000\000\000\000\000\000\024\371\204\000\000\000\000\000\000\000\000\000\000\000,\331\373\203\014\tx|\000\000\000\000\000\002\252\371$\000\000\000\000\000\000\000\000\000\000\000\000\n\225\376\377\364\377\311\000\000\000\000:\313\377k\000\000\000\000\000\000\000\000\000\000\000\000\000\000\000:\213\342\377\203\017\007X\274\376\336P\000\000\000\000\000\000\000\000\000\000\000\000\000\000\000\000\000\000\032\307\377\377\377\377\330q\010\000\000\000\000\000\000\000\000\000\000\000\000\000\000\000\000\000\000\000\000\001Fjv=\001\000\000\000\000\000\000\000\000\000\000\000\000\000\000\000\000\000\000\000\000\000\000\000\000\000\000\000\000\000\000\000\000\000\000\000\000\000\000"
      }
    }
  }
}
node {
  name: "Reshape_5/shape"
  op: "Const"
  device: "/device:CPU:0"
  attr {
    key: "_output_shapes"
    value {
      list {
        shape {
          dim {
            size: 2
          }
        }
      }
    }
  }
  attr {
    key: "dtype"
    value {
      type: DT_INT32
    }
  }
  attr {
    key: "value"
    value {
      tensor {
        dtype: DT_INT32
        tensor_shape {
          dim {
            size: 2
          }
        }
        tensor_content: "\034\000\000\000\034\000\000\000"
      }
    }
  }
}
node {
  name: "Reshape_5"
  op: "Reshape"
  input: "Const_5"
  input: "Reshape_5/shape"
  device: "/device:CPU:0"
  attr {
    key: "T"
    value {
      type: DT_UINT8
    }
  }
  attr {
    key: "Tshape"
    value {
      type: DT_INT32
    }
  }
  attr {
    key: "_output_shapes"
    value {
      list {
        shape {
          dim {
            size: 28
          }
          dim {
            size: 28
          }
        }
      }
    }
  }
}
node {
  name: "Cast_5"
  op: "Cast"
  input: "Reshape_5"
  device: "/device:CPU:0"
  attr {
    key: "DstT"
    value {
      type: DT_HALF
    }
  }
  attr {
    key: "SrcT"
    value {
      type: DT_UINT8
    }
  }
  attr {
    key: "_output_shapes"
    value {
      list {
        shape {
          dim {
            size: 28
          }
          dim {
            size: 28
          }
        }
      }
    }
  }
}
node {
  name: "Const_6"
  op: "Const"
  device: "/device:CPU:0"
  attr {
    key: "_output_shapes"
    value {
      list {
        shape {
          dim {
            size: 784
          }
        }
      }
    }
  }
  attr {
    key: "dtype"
    value {
      type: DT_UINT8
    }
  }
  attr {
    key: "value"
    value {
      tensor {
        dtype: DT_UINT8
        tensor_shape {
          dim {
            size: 784
          }
        }
        tensor_content: "\000\000\000\000\000\000\000\000\000\000\000\000\000\000\000\000\000\000\000\000\000\000\000\000\000\000\000\000\000\000\000\000\000\000\000\000\000ET\020\000\000\000\000\006\005\000\000\000\000\000\000\000\000\000\000\000\000\000\000\000\000\000\000\000\323\377\373\257\033\000\t\314\242\000\000\000\000\000\000\000\000\000\000\000\000\000\000\000\000\000\000\000\324\316\177\360\3567\240\374B\000\000\000\000\000\000\000\000\000\000\000\000\000\000\000\000\000\000\000\202\376O\036\325\360\377v\000\000\000\000\000\000\000\000\000\000\000\000\000\000\000\000\000\000\000\000\004\306\354\t>\376\321\001\000\000\000\000\000\000\000\000\000\000\000\000\000\000\000\000\000\000\000\000\000\034}\002\230\367\034\000\000\000\000\000\000\000\000\000\000\000\000\000\000\000\000\000\000\000\000\000\000\000\000\036\371\214\000\000\000\000\000\000\000\000\000\000\000\000\000\000\000\000\000\000\000\000\037BT\t\000\205\370\027\0253KY\021\000\000\000\000\000\000\000\000\000\000\000\000\000\036\257\377\377\377\323\035\332\341\273\375\377\377\377\360x\000\000\000\000\000\000\000\000\000\000\000\023\337\360v:H\354\340\377\377\333wI/3\250\377{\000\000\000\000\000\000\000\000\000\000\223\367/\000\000\000>\371\377\332\020\000\000\000\000\000\231\376[\000\000\000\000\000\000\000\000\022\365\224\000\000\000\000\000\206\363,\000\000\000\000\000\000\004\270\361\014\000\000\000\000\000\000\000H\3777\000\000\000\000\000\007\033\000\000\000\000\000\000\000\0001\377f\000\000\000\000\000\000\000Z\377 \000\000\000\000\000\000\000\000\000\000\000\000\000\000\000\000\310\312\000\000\000\000\000\000\000S\377\'\000\000\000\000\000\000\000\000\000\000\000\000\000\000\000\000z\373\007\000\000\000\000\000\000M\377-\000\000\000\000\000\000\000\000\000\000\000\000\000\000\000\000P\377.\000\000\000\000\000\000C\377;\000\000\000\000\000\000\000\000\000\000\000\000\000\000\000\000*\377S\000\000\000\000\000\000\022\374x\000\000\000\000\000\000\000\000\000\000\000\000\000\000\000\000<\377A\000\000\000\000\000\000\000\304\315\000\000\000\000\000\000\000\000\000\000\000\000\000\000\000\000{\373\023\000\000\000\000\000\000\000_\3778\000\000\000\000\000\000\000\000\000\000\000\000\000\000\020\340\275\000\000\000\000\000\000\000\000\t\354\241\000\000\000\000\000\000\000\000\000\000\000\000\000\000\252\367/\000\000\000\000\000\000\000\000\000\211\373Q\000\000\000\000\000\000\000\000\000\000\000\007\213\377l\000\000\000\000\000\000\000\000\000\000\t\276\370^\002\000\000\000\000\000\000\000\0007\325\376\221\001\000\000\000\000\000\000\000\000\000\000\000\r\300\377\330b\'\007\005\0219{\274\374\335A\000\000\000\000\000\000\000\000\000\000\000\000\000\000\001L\307\377\377\377\377\377\377\374\311~\013\000\000\000\000\000\000\000\000\000\000\000\000\000\000\000\000\000\000/UrtfM\016\000\000\000\000\000\000\000\000\000\000\000\000\000\000\000\000\000\000\000\000\000\000\000\000\000\000\000\000\000\000\000\000\000\000\000\000\000\000\000"
      }
    }
  }
}
node {
  name: "Reshape_6/shape"
  op: "Const"
  device: "/device:CPU:0"
  attr {
    key: "_output_shapes"
    value {
      list {
        shape {
          dim {
            size: 2
          }
        }
      }
    }
  }
  attr {
    key: "dtype"
    value {
      type: DT_INT32
    }
  }
  attr {
    key: "value"
    value {
      tensor {
        dtype: DT_INT32
        tensor_shape {
          dim {
            size: 2
          }
        }
        tensor_content: "\034\000\000\000\034\000\000\000"
      }
    }
  }
}
node {
  name: "Reshape_6"
  op: "Reshape"
  input: "Const_6"
  input: "Reshape_6/shape"
  device: "/device:CPU:0"
  attr {
    key: "T"
    value {
      type: DT_UINT8
    }
  }
  attr {
    key: "Tshape"
    value {
      type: DT_INT32
    }
  }
  attr {
    key: "_output_shapes"
    value {
      list {
        shape {
          dim {
            size: 28
          }
          dim {
            size: 28
          }
        }
      }
    }
  }
}
node {
  name: "Cast_6"
  op: "Cast"
  input: "Reshape_6"
  device: "/device:CPU:0"
  attr {
    key: "DstT"
    value {
      type: DT_HALF
    }
  }
  attr {
    key: "SrcT"
    value {
      type: DT_UINT8
    }
  }
  attr {
    key: "_output_shapes"
    value {
      list {
        shape {
          dim {
            size: 28
          }
          dim {
            size: 28
          }
        }
      }
    }
  }
}
node {
  name: "Const_7"
  op: "Const"
  device: "/device:CPU:0"
  attr {
    key: "_output_shapes"
    value {
      list {
        shape {
          dim {
            size: 784
          }
        }
      }
    }
  }
  attr {
    key: "dtype"
    value {
      type: DT_UINT8
    }
  }
  attr {
    key: "value"
    value {
      tensor {
        dtype: DT_UINT8
        tensor_shape {
          dim {
            size: 784
          }
        }
        tensor_content: "\000\000\000\000\000\000\000\000\000\000\000\000\000\000\000\000\000\000\000\000\000\000\000\000\000\000\000\000\000\000\000\000\000\000\000\000\000\000\000\000\000\000\000\000\000\000\000\000\000\000\000\000\000\000\000\000\000\000\000\000\000\000\000\000\000\000\000\000\000\000\000\000\000\000\000\000\000\000\000\020V\002\000\000\000\000\000\000\000\000\000\000\000\000\000\000\000\000\000\003[fff\217ty\352\370\032\000\000\000\000\000\000\000\000\000\000\000\000\000\000\000\000\000\036\372\377\377\377\377\377\377\267(\000\000\000\000\000\000\000\000\000\000\000\000\000\000\000\000\000\000\000\n\021\021\021\370\211\016\000\000\000\000\000\000\000\000\000\000\000\000\000\000\000\000\000\000\000\000\000\000\000\000\000\367\201\000\000\000\000\000\000\000\000\000\000\000\000\000\000\000\000\000\000\000\000\000\000\000\000\016/\373|\000\000\000\000\000\000\000\000\000\000\000\000\000\000\000\000\016He\200\236\271\325\362\377\377\374.\000\000\000\000\000\000\000\000\000\000\000\000\000\000\000C\356\377\377\367\334\323\377\264mN)\000\000\000\000\000\000\000\000\000\000\000\000\000\000\000\000\302\327:\026\000\000E\377T\000\000\000\000\000\000\000\000\000\000\000\000\000\000\000\000\000\000\000\325\261\001\002+e\344\374\2756\000\000\000\000\000\000\000\000\000\000\000\000\000\000\000\000\000\000\325\377\377\377\377\377\347\266\335\373\200\003\000\000\000\000\000\000\000\000\000\000\000\000\000\000\000U\377\231wwW\035\000\000\014\231\377\241\002\000\000\000\000\000\000\000\000\003]\010\000\000\021\347\305\002\000\000\000\000\000\000\000\000r\377\221\000\000\000\000\000\000\000\000R\377\326s\"\273\367*\000\000\000\000\000\000\000\000\000\016\227\376(\000\000\000\000\000\000\000\254\360\377\375\377\376\\\000\000\000\000\000\000\000\000\000\024\320\377\377\350t\010\000\000\000\000T\376\363\377\225\377\374\271\000\000\000\000\000\000\000\000\000\031\362\323y\261\376\342Q\000\000\000 \376\352\377\357ji\3775\000\000\000\000\000\000\000\000\000\343\226\000\0008\314\357\006\000\000\000\365\260\377d\000\n\371\201\000\000\000\000\000\000\000\000\000\343\225\000\000\000B\377K\000\000\000\356\267\377e\r\000\370\201\000\000\000\000\000\000\000\000\000\343\225\000\000\000\003\376z\000\000\000\350\363\377\377\326$\376z\000\000\000\000\000\000\000\000\000\343\226\000\000\000\002\376z\000\000\000\341\376\207C\346\356\377t\000\000\000\000\000\000\000\000\000\302\331\027\000\003u\377R\000\000\000\323\356\217?6\335\377A\000\000\000\000\000\000\000\000\000<\361\342\200\314\377\257\t\000\000\000<\247\365\377\377\377\237\000\000\000\000\000\000\000\000\000\000\000*\311\371\340N\000\000\000\000\000\000\000\013A^@\000\000\000\000\000\000\000\000\000\000\000\000\000\000\002\003\000\000\000\000\000\000\000\000\000\000\000\000\000\000\000\000\000\000\000\000\000\000\000\000\000\000\000\000\000\000\000\000\000\000\000\000\000\000\000\000\000\000\000\000\000\000\000\000\000\000\000\000\000\000\000\000\000\000\000\000"
      }
    }
  }
}
node {
  name: "Reshape_7/shape"
  op: "Const"
  device: "/device:CPU:0"
  attr {
    key: "_output_shapes"
    value {
      list {
        shape {
          dim {
            size: 2
          }
        }
      }
    }
  }
  attr {
    key: "dtype"
    value {
      type: DT_INT32
    }
  }
  attr {
    key: "value"
    value {
      tensor {
        dtype: DT_INT32
        tensor_shape {
          dim {
            size: 2
          }
        }
        tensor_content: "\034\000\000\000\034\000\000\000"
      }
    }
  }
}
node {
  name: "Reshape_7"
  op: "Reshape"
  input: "Const_7"
  input: "Reshape_7/shape"
  device: "/device:CPU:0"
  attr {
    key: "T"
    value {
      type: DT_UINT8
    }
  }
  attr {
    key: "Tshape"
    value {
      type: DT_INT32
    }
  }
  attr {
    key: "_output_shapes"
    value {
      list {
        shape {
          dim {
            size: 28
          }
          dim {
            size: 28
          }
        }
      }
    }
  }
}
node {
  name: "Cast_7"
  op: "Cast"
  input: "Reshape_7"
  device: "/device:CPU:0"
  attr {
    key: "DstT"
    value {
      type: DT_HALF
    }
  }
  attr {
    key: "SrcT"
    value {
      type: DT_UINT8
    }
  }
  attr {
    key: "_output_shapes"
    value {
      list {
        shape {
          dim {
            size: 28
          }
          dim {
            size: 28
          }
        }
      }
    }
  }
}
node {
  name: "Const_8"
  op: "Const"
  device: "/device:CPU:0"
  attr {
    key: "_output_shapes"
    value {
      list {
        shape {
          dim {
            size: 784
          }
        }
      }
    }
  }
  attr {
    key: "dtype"
    value {
      type: DT_UINT8
    }
  }
  attr {
    key: "value"
    value {
      tensor {
        dtype: DT_UINT8
        tensor_shape {
          dim {
            size: 784
          }
        }
        tensor_content: "\000\000\000\000\000\000\000\000\000\000\000\000\000\000\000\000\000\000\000\000\000\000\000\000\000\000\000\000\000\000\000\000\000\000\000\000\000\000\000\000\000\000\000\000\000\000\000\000\000\000\000\000\000\000\000\000\000\000\000\000\000\000\000\000\000\000\000\000\000\000\000\000\010_\031\000\000\000\000\000\000\000\000\000\000\000\000\000\000\000\000\000\000\000\000\000\000\000\004d\342\377\231\000\000\000\000\000\000\000\000\000\000\000\000\000\000\000\000\000\000\000\000\000\000L\332\377\277\333\270\000\000\000\000\000\000\000\000\000\000\000\000\000\000\000\000\000\000\000\000\0004\372\315E\000\311\256\000\000\000\000\000\000\000\000\000\000\000\000\000\000\000\000\000\000\000\000\013\331\334\r\000\000\337\235\000\000\000\000\000\000\000\000\000\000\000\000\000\000\000\000\000\000\000\000\212\3738\000\000\017\376p\000\000\000\000\000\000\000\000\000\000\000\000\000\000\000\000\000\000\000!\370\223\000\000\000?\377@\000\000\000\000\000\000\000\000\000\000\000\000\000\000\034$+\005\000\252\357\024\000\000\000n\377\021\000\000\000\000\000\000\000\000\000\000\000\000J\311\377\377\377\371\333\377\205\000\000\000\000\235\341\000\000\000\000\000\000\000\000\000\000\000\000\203\377\342\221UQ\200\342\377\347\257\310\344\367\366\344xK\036\000\000\000\000\000\000\000\0002\375\226\211\221\000\000\000\000=\254\316\262\227\206\301\337\374\377\377\356\237:\000\000\000\000\000V\377(\000\000\000\000\000\000\000\000\000\000\000\000\000\000\t4b\226\355\377\324o\006\000\0009\377p\000\000\000\000\000\000\000\000\000\000\000\000\000\000\000\000\000\000\010Z\277\377e\000\000\004\256\376\303\252\257\273\273\273{\000\000\000\000\000\000\000\000\000\000\000\000\000(\377a\000\000\000\005s\302\314\314\300\273\375\363@\000\000\000\000\000\000\000\000\000\000\000\017\307\356\027\000\000\000\000\000\000\000\000\000\000\310\367\376\244\031\000\n_\003\000\006#C\205\357\373J\000\000\000\000\000\000\000\000\000\000\000\202\367{\364\375\333\344\377\321\343\375\377\377\373\242*\000\000\000\000\000\000\000\000\000\000\000\000O\3771\036s\243\367\344\252\227xX9\023\000\000\000\000\000\000\000\000\000\000\000\000\000\000\034\377d\000\000f\377:\000\000\000\000\000\000\000\000\000\000\000\000\000\000\000\000\000\000\000\000\000\350\233\000\t\332\302\000\000\000\000\000\000\000\000\000\000\000\000\000\000\000\000\000\000\000\000\000\000\233\361\024\264\373@\000\000\000\000\000\000\000\000\000\000\000\000\000\000\000\000\000\000\000\000\000\000*\376\341\375]\000\000\000\000\000\000\000\000\000\000\000\000\000\000\000\000\000\000\000\000\000\000\000\000\265\377m\000\000\000\000\000\000\000\000\000\000\000\000\000\000\000\000\000\000\000\000\000\000\000\000\000!Q\000\000\000\000\000\000\000\000\000\000\000\000\000\000\000\000\000\000\000\000\000\000\000\000\000\000\000\000\000\000\000\000\000\000\000\000\000\000\000\000\000\000\000\000\000\000\000\000\000\000\000\000\000\000\000\000\000\000\000\000\000\000\000\000\000\000\000\000\000\000\000"
      }
    }
  }
}
node {
  name: "Reshape_8/shape"
  op: "Const"
  device: "/device:CPU:0"
  attr {
    key: "_output_shapes"
    value {
      list {
        shape {
          dim {
            size: 2
          }
        }
      }
    }
  }
  attr {
    key: "dtype"
    value {
      type: DT_INT32
    }
  }
  attr {
    key: "value"
    value {
      tensor {
        dtype: DT_INT32
        tensor_shape {
          dim {
            size: 2
          }
        }
        tensor_content: "\034\000\000\000\034\000\000\000"
      }
    }
  }
}
node {
  name: "Reshape_8"
  op: "Reshape"
  input: "Const_8"
  input: "Reshape_8/shape"
  device: "/device:CPU:0"
  attr {
    key: "T"
    value {
      type: DT_UINT8
    }
  }
  attr {
    key: "Tshape"
    value {
      type: DT_INT32
    }
  }
  attr {
    key: "_output_shapes"
    value {
      list {
        shape {
          dim {
            size: 28
          }
          dim {
            size: 28
          }
        }
      }
    }
  }
}
node {
  name: "Cast_8"
  op: "Cast"
  input: "Reshape_8"
  device: "/device:CPU:0"
  attr {
    key: "DstT"
    value {
      type: DT_HALF
    }
  }
  attr {
    key: "SrcT"
    value {
      type: DT_UINT8
    }
  }
  attr {
    key: "_output_shapes"
    value {
      list {
        shape {
          dim {
            size: 28
          }
          dim {
            size: 28
          }
        }
      }
    }
  }
}
node {
  name: "Const_9"
  op: "Const"
  device: "/device:CPU:0"
  attr {
    key: "_output_shapes"
    value {
      list {
        shape {
          dim {
            size: 784
          }
        }
      }
    }
  }
  attr {
    key: "dtype"
    value {
      type: DT_UINT8
    }
  }
  attr {
    key: "value"
    value {
      tensor {
        dtype: DT_UINT8
        tensor_shape {
          dim {
            size: 784
          }
        }
        tensor_content: "\000\000\000\000\000\000\000\000\000\000\000\000\000\000\000\000\000\000\000\000\000\000\000\000\000\000\000\000\000\000\000\000\000\000\000\000\000\000\000\000\000)J\000\000\000\000\000\000\000\000\000\000\000\000\000\000\000\000\000\000\000\000\000\000\000\000\000\000\251\321\000\000\000\000\000\000\000\000\000\000\000\000\000\000\000\000\000\000\000\000\000\000\000\000\000\000\341\240\000\000\000\000\000\000\000\000\000\000\000\000\000\000\000\000\000\000\000\000\000\000\000\000\000\026\377k\000\000\000\000\000\000\000\000\000\000\000\000\000\000\000\000\000\000\000\000\014\021\001\000\000L\3775\000\000\000\000\000\000\000\000\000\000\000\000\000\000\000\000\000\000\000t\376\377\316\036\000v\375\010\000[\333\374x\000\000\000\000\000\000\000\000\000\000\000\000\000\001\352\273o\354\350;\224\346 \271\377\310\365\305\000\000\000\000\000\000\000\000\000\000\000\000\000\005\367\312\"\"\324\371\320\336\360\357\266\333\377[\000\000\000\000\000\000\000\000\000\000\000\000\000\000N\353\362c\r\303\377\377\377\377\377\366\204\000\000\000\000\000\000\000\000\000\000\000\000\000\000\000\000\030\264\377\262\254\377\377\377\353\256\303\377b\000\000\000\000\000\000\000\000\000\000\000\000\000\000\000\000\001\200\375\377\370\363r\006\000\003\257\373H\000\000\000\000\000\000\000\000\000\000\000\000\000\000\000@\361\347\263\222\000\000\000\000\000\t\307\3622\000\000\000\000\000\000\000\000\000\000\000\000\000#\356\315\030\000\000\000\000\000\000\000\000\024\332\346\035\000\000\000\000\000\000\000\000\000\000\000\n\321\350\033\000\000\000\000\000\000\000\000\000\000#\365\214\000\000\000\000\000\000\000\000\000\000\000\245\373?\000\000\000\000\000\000\000\000\000\000\000\000\256\332\000\000\000\000\000\000\000\000\000\000N\377p\000\000\000\000\000\000\000\000\000\000\000\000\000\225\347\000\000\000\000\000\000\000\000\000\000\233\352\002\000\000\000\000\000\000\000\000\000\000\000\000\000\275\277\000\000\000\000\000\000\000\000\000\000\340\244\000\000\000\000\000\000\000\000\000\000\000\000\000\000\346\227\000\000\000\000\000\000\000\000\000\000\351\221\000\000\000\000\000\000\000\000\000\000\000\000\0008\377Y\000\000\000\000\000\000\000\000\000\000\311\262\000\000\000\000\000\000\000\000\000\000\000\000\000\226\361\n\000\000\000\000\000\000\000\000\000\000\216\3724\000\000\000\000\000\000\000\000\000\000\000\t\355\235\000\000\000\000\000\000\000\000\000\000\000\r\335\327\024\000\000\000\000\000\000\000\000\000\000\216\3755\000\000\000\000\000\000\000\000\000\000\000\000:\367\355k\016\000\000\000\000\000\000\010\216\377\210\000\000\000\000\000\000\000\000\000\000\000\000\000\000$\266\377\367\256W\025\003*r\345\377\210\002\000\000\000\000\000\000\000\000\000\000\000\000\000\000\000\0001\211\337\377\377\377\377\377\2668\000\000\000\000\000\000\000\000\000\000\000\000\000\000\000\000\000\000\000\000\0017fwX\037\000\000\000\000\000\000\000\000\000\000\000\000\000\000\000\000\000\000\000\000\000\000\000\000\000\000\000\000\000\000\000\000\000\000\000\000\000\000\000"
      }
    }
  }
}
node {
  name: "Reshape_9/shape"
  op: "Const"
  device: "/device:CPU:0"
  attr {
    key: "_output_shapes"
    value {
      list {
        shape {
          dim {
            size: 2
          }
        }
      }
    }
  }
  attr {
    key: "dtype"
    value {
      type: DT_INT32
    }
  }
  attr {
    key: "value"
    value {
      tensor {
        dtype: DT_INT32
        tensor_shape {
          dim {
            size: 2
          }
        }
        tensor_content: "\034\000\000\000\034\000\000\000"
      }
    }
  }
}
node {
  name: "Reshape_9"
  op: "Reshape"
  input: "Const_9"
  input: "Reshape_9/shape"
  device: "/device:CPU:0"
  attr {
    key: "T"
    value {
      type: DT_UINT8
    }
  }
  attr {
    key: "Tshape"
    value {
      type: DT_INT32
    }
  }
  attr {
    key: "_output_shapes"
    value {
      list {
        shape {
          dim {
            size: 28
          }
          dim {
            size: 28
          }
        }
      }
    }
  }
}
node {
  name: "Cast_9"
  op: "Cast"
  input: "Reshape_9"
  device: "/device:CPU:0"
  attr {
    key: "DstT"
    value {
      type: DT_HALF
    }
  }
  attr {
    key: "SrcT"
    value {
      type: DT_UINT8
    }
  }
  attr {
    key: "_output_shapes"
    value {
      list {
        shape {
          dim {
            size: 28
          }
          dim {
            size: 28
          }
        }
      }
    }
  }
}
node {
  name: "Const_10"
  op: "Const"
  device: "/device:CPU:0"
  attr {
    key: "_output_shapes"
    value {
      list {
        shape {
          dim {
            size: 784
          }
        }
      }
    }
  }
  attr {
    key: "dtype"
    value {
      type: DT_UINT8
    }
  }
  attr {
    key: "value"
    value {
      tensor {
        dtype: DT_UINT8
        tensor_shape {
          dim {
            size: 784
          }
        }
        tensor_content: "\000\000\000\000\000\000\000\000\000\000\000\000\000\000\000\000\000\000\000\000\000\000\000\000\000\000\000\000\000\000\000\000\000\000\000\000\000\000\000\000\000\000\000\000\000\000\000\000\000\000\000\000\000\000\000\000\000\000\000\000\000\000\000\000\000\000\000\000\000\000\000\000\000\000\000\000\000\000\000\000\000\000\000\000\000\000\000\000\000\000\000\000\000\000\000\000\000\000\000\000\000\000\000\000\000\000\000\000\000\000\000\000\000\000\000\000\000\000\000\000\000\000\000\000\000\000\000\000\000\000\000\000\000\000\000\000\000\000\000\000\000\000\000\000\000\000\000\000\000\000\010\003\000\000\000\000\000\000\000\000\000\000\000\000\000\000\000\000\000\000\000\000\000\000\000\020k\270\367\233\000\000\000\000\000\000\000\000\000\000\000\000\000\000\000\000\000\000\000\000\000$\263\374\377\317\214G\000\000\000\000\000\000\000\000\000\000\000\000\000\000\000\000\000\000\000\000\000\234\364\371\257\000\000\0009wwwwwf\003\000\000\000\000\000\000\000\000\000\000\000\000\000\006\010\245\336\000\000\000\253\377\377\377\377\377\367\035\000\000\000\000\000\000\000\000\000\000\000\000\000\000\000j\377\034\000\000\001\021\261\324\021\021\010\000\000\000\000\000\000\000\000\000\000\000\000\000\000\000\000\036\374{\000\000\006\021\322\266\r\000\000\000\000\000\000\000\000\000\000\000\000\000\000\000\000\000\000\000\321\372\373\377\377\377\377\377\377\357\322\263\2255\000\000\000\000\000\000\000\000\000\000\tO:\n\344\320\201wwgf^n\213\250\305\355\372.\000\000\000\000\000\000\000\026H\335\377\377\361\377W\000\000\000\000\000\000\000\000\000\000\017\345\265\000\000\000\000\000\000\000\342\377\310<W\366\376\325\020\000\000\000\000\000\000\000\000\000(\336\376\346\202\005\000\000\000\017\377\204\007\000\205\363b\377S\000\000\000\000\000\000\000\020\254\377\374\375\246\376\301\001\000\0000\377L\000\000\024)\010\375w\000\000\000\000\000\000\013\317\367sz\377\032d\377C\000\000R\3777\000\000\000\000\034\375q\000\000\000\000\000\000N\377\215\001F\3776\004\376z\000\0001\363\344<\000\000\005\264\372\035\000\000\000\000\000\000\034\310\377\315Q\240\0257\377^\000\000\000)\325\373\220o\302\375]\000\000\000\000\000\000\000\000\001S\330\377\333\264\317\353\t\000\000\000\000\013\237\366\377\332\\\000\000\000\000\000\000\000\000\000\000\000\004`\244\312\334O\000\000\000\000\000\000\000\000\021\000\000\000\000\000\000\000\000\000\000\000\000\000\000\000\000\000\000\000\000\000\000\000\000\000\000\000\000\000\000\000\000\000\000\000\000\000\000\000\000\000\000\000\000\000\000\000\000\000\000\000\000\000\000\000\000\000\000\000\000\000\000\000\000\000\000\000\000\000\000\000\000\000\000\000\000\000\000\000\000\000\000\000\000\000\000\000\000\000\000\000\000\000\000\000\000\000\000\000\000\000\000\000\000\000\000\000\000\000\000\000\000\000\000\000\000\000\000\000\000\000\000\000\000\000\000\000\000\000\000\000\000\000\000\000\000\000\000\000\000\000\000\000\000\000\000\000\000\000\000\000\000\000\000\000\000\000\000\000\000\000"
      }
    }
  }
}
node {
  name: "Reshape_10/shape"
  op: "Const"
  device: "/device:CPU:0"
  attr {
    key: "_output_shapes"
    value {
      list {
        shape {
          dim {
            size: 2
          }
        }
      }
    }
  }
  attr {
    key: "dtype"
    value {
      type: DT_INT32
    }
  }
  attr {
    key: "value"
    value {
      tensor {
        dtype: DT_INT32
        tensor_shape {
          dim {
            size: 2
          }
        }
        tensor_content: "\034\000\000\000\034\000\000\000"
      }
    }
  }
}
node {
  name: "Reshape_10"
  op: "Reshape"
  input: "Const_10"
  input: "Reshape_10/shape"
  device: "/device:CPU:0"
  attr {
    key: "T"
    value {
      type: DT_UINT8
    }
  }
  attr {
    key: "Tshape"
    value {
      type: DT_INT32
    }
  }
  attr {
    key: "_output_shapes"
    value {
      list {
        shape {
          dim {
            size: 28
          }
          dim {
            size: 28
          }
        }
      }
    }
  }
}
node {
  name: "Cast_10"
  op: "Cast"
  input: "Reshape_10"
  device: "/device:CPU:0"
  attr {
    key: "DstT"
    value {
      type: DT_HALF
    }
  }
  attr {
    key: "SrcT"
    value {
      type: DT_UINT8
    }
  }
  attr {
    key: "_output_shapes"
    value {
      list {
        shape {
          dim {
            size: 28
          }
          dim {
            size: 28
          }
        }
      }
    }
  }
}
node {
  name: "Const_11"
  op: "Const"
  device: "/device:CPU:0"
  attr {
    key: "_output_shapes"
    value {
      list {
        shape {
          dim {
            size: 784
          }
        }
      }
    }
  }
  attr {
    key: "dtype"
    value {
      type: DT_UINT8
    }
  }
  attr {
    key: "value"
    value {
      tensor {
        dtype: DT_UINT8
        tensor_shape {
          dim {
            size: 784
          }
        }
        tensor_content: "\000\000\000\000\000\000\000\000\000\000\000\000\000\000\000\000\000\000\000\000\000\000\000\000\000\000\000\000\000\000\000\000\000\000\000\000\000\000\000\000\000-\\fg\r\000\000\000\000\000\000\000\000\000\000\000\000\000\000\000\000\000\000\000\000\000\000p\375\377\377\375?\000\000\000\000\000\000\000\000\000\000\000\000\000\000\000\000\000\000\000\000\000A\376\244\"\021\013\000\000\000\000\000\000\000\000\000\000\000\000\000\000\000\000\000\000\000\000\000\000\241\350\005\000\000\000\000\000\000\000\000\000\000\000\000\000\000\000\000\000\000\000\000\000\000\000\000\000\315\256\000\000\000\000\000\000\000\000\000\000\000\000\000\000\000\000\000\000\000\000\000\000\000\000\000\000\311\260\000\000\000\000\000\000\000\000\000\000\000\000\000\000\000\000\000\000\000\000\000\000\000\000\000\000\303\266\023\237\314\306\273\230H\001\000\000\000\000\000\000\000\000\000\000\000\000\000\000\000\000\000\000\276\316\266\377\267\266\274\354\377\260\021\000\000\000\000\000\000\000\000\000\000\000\000\000\000\000\000?\356\377\377\3758\000\000\003h\366\301\002\000\000\000\000\000\000\000\000\000\000\000\000\000\026\243\376\340p\021\n\000\000\000\000\000T\377e\000\000\000\000\000\000\000\000\000\000\000\000\'\344\365x\005\000\000\000\000\000\000\000\000\000\304\322\000\000\000\000\000\000\000\000\000\000\000\"\345\344\'\000\000\000\000\000\000\000\000\000\000\000Z\377=\000\000\000\000\000\000\000\000\000\002\302\352%\000\000\000\000\000\000\000\000\000\000\000\000\007\362\212\000\000\000\000\000\000\000\000\000i\377X\000\000\000\000\000\000\000\000\000\000\000\000\000\000\324\246\000\000\000\000\000\000\000\000\017\361\263\000\000\000\000\000\000\000\000\000\000\000\000\000\000\000\303\266\000\000\000\000\000\000\000\000\\\3771\000\000\000\000\000\000\000\000\000\000\000\000\000\000\000\306\263\000\000\000\000\000\000\000\000\233\343\000\000\000\000\000\000\000\000\000\000\000\000\000\000\000\000\311\260\000\000\000\000\000\000\000\000\247\322\000\000\000\000\000\000\000\000\000\000\000\000\000\000\000\000\315\254\000\000\000\000\000\000\000\000\256\313\000\000\000\000\000\000\000\000\000\000\000\000\000\000\000\000\321\250\000\000\000\000\000\000\000\000\264\305\000\000\000\000\000\000\000\000\000\000\000\000\000\000\000\000\323\245\000\000\000\000\000\000\000\000\230\352\002\000\000\000\000\000\000\000\000\000\000\000\000\000\000\000\327\242\000\000\000\000\000\000\000\000G\377\177\000\000\000\000\000\000\000\000\000\000\000\000\000\000\014\364\211\000\000\000\000\000\000\000\000\000\226\375N\000\000\000\000\000\000\000\000\000\000\000\000\000\210\3773\000\000\000\000\000\000\000\000\000\006\303\373\263uA\025\021\021\021\021\021\021\0217\225\376\215\000\000\000\000\000\000\000\000\000\000\000\020\200\324\375\377\377\377\377\377\377\377\377\377\377\363\226\003\000\000\000\000\000\000\000\000\000\000\000\000\000\000\r@owwwwwwwT\n\000\000\000\000\000\000\000\000\000\000\000\000\000\000\000\000\000\000\000\000\000\000\000\000\000\000\000\000\000\000\000\000\000\000\000"
      }
    }
  }
}
node {
  name: "Reshape_11/shape"
  op: "Const"
  device: "/device:CPU:0"
  attr {
    key: "_output_shapes"
    value {
      list {
        shape {
          dim {
            size: 2
          }
        }
      }
    }
  }
  attr {
    key: "dtype"
    value {
      type: DT_INT32
    }
  }
  attr {
    key: "value"
    value {
      tensor {
        dtype: DT_INT32
        tensor_shape {
          dim {
            size: 2
          }
        }
        tensor_content: "\034\000\000\000\034\000\000\000"
      }
    }
  }
}
node {
  name: "Reshape_11"
  op: "Reshape"
  input: "Const_11"
  input: "Reshape_11/shape"
  device: "/device:CPU:0"
  attr {
    key: "T"
    value {
      type: DT_UINT8
    }
  }
  attr {
    key: "Tshape"
    value {
      type: DT_INT32
    }
  }
  attr {
    key: "_output_shapes"
    value {
      list {
        shape {
          dim {
            size: 28
          }
          dim {
            size: 28
          }
        }
      }
    }
  }
}
node {
  name: "Cast_11"
  op: "Cast"
  input: "Reshape_11"
  device: "/device:CPU:0"
  attr {
    key: "DstT"
    value {
      type: DT_HALF
    }
  }
  attr {
    key: "SrcT"
    value {
      type: DT_UINT8
    }
  }
  attr {
    key: "_output_shapes"
    value {
      list {
        shape {
          dim {
            size: 28
          }
          dim {
            size: 28
          }
        }
      }
    }
  }
}
node {
  name: "Const_12"
  op: "Const"
  device: "/device:CPU:0"
  attr {
    key: "_output_shapes"
    value {
      list {
        shape {
          dim {
            size: 784
          }
        }
      }
    }
  }
  attr {
    key: "dtype"
    value {
      type: DT_UINT8
    }
  }
  attr {
    key: "value"
    value {
      tensor {
        dtype: DT_UINT8
        tensor_shape {
          dim {
            size: 784
          }
        }
        tensor_content: "\000\000\000\000\000\000\000\000\000\000\000\000\000\000\000\000\000\000\000\000\000\000\000\000\000\000\000\000\000\000\000\000\000\000\000\000\000\000\000\000\000\000\000\000\000\000\000\000\000\000\000\000\000\000\000\000\000\000\000\000\000\000\000\000\000\000\000\000\000\000\000\000\000\000\000\000\000\000\000\000\000\000\000\000\000\000\000\000\000\000\000\000\000\000\000\000\000\000\000\000\000\000\000\000\000\000\000\000\000\000\000\000\000\000\000\000\000\000\000\000\000\000\000\000\000\000\000\000\000\000\000\000\000\000\000\000\000\000\000\000\000\000\000\000\000\000\000\000\000\000\000\000\000\000\000\000\000\000\000\000\000\000\000\000\000\000\000\000\000\000\000\000\000\000\000\000\000\000\000\000\000\000\000\000\001NH\005\000\000\000\000\000\000\000\000\000\000\000\000\000\000\000\000\000\000\000\000\000\000\000\000S\377\377l\000\000\000\000\000\000\000\000\000\000\000\000\000\000\000\000\000\000\000\000\000\000\000\006\323\323\322\267\000\000\000\000\000\000\000\000\000\000\000\000\000\000\000\000\000\000\000\000\000\000\000\200\376F\206\367\n\000\000\000\000\000\000\000\000\000\000\000\000\024\031\017\000\000\000\000\000\000.\371\232\000<\377K\000\000\000\000\000\000\000\000\000%\220\324\377\377\377}\000\000\000\000\004\314\343\017\000\004\355\2654\013\000\000\000\000\000\000\033\361\361\261o`g%\000\000\000\000x\377K\000\000\000r\377\377\376\336\263F\000\000\000m\377$\000\000\000\000\000\000\000\000(\367\242\000\000\000\000\000\036It\236\332\376P\000\000A\376\276S3333Qw\236\336\377+\000\000\000\037\205{vfb\301\365+\000\000\000`\340\377\377\377\377\377\377\374\335\266\370\217\000\000\000\212\375\375\377\377\377\360T\000\000\000\000\000\0041DOUO-\007\000\000\225\366\031\000\000\315\266\000\003\021\031\007\000\000\000\000\000\000\000\000\000\000\000\000\000\000\000\000\035\367\263\002\000\361\210\000\000\000\000\000\000\000\000\000\000\000\000\000\000\000\000\000\000\000\000\000\000]\377\201\007\377s\000\000\000\000\000\000\000\000\000\000\000\000\000\000\000\000\000\000\000\000\000\000\000\223\376p\377`\000\000\000\000\000\000\000\000\000\000\000\000\000\000\000\000\000\000\000\000\000\000\000\005\302\377\377F\000\000\000\000\000\000\000\000\000\000\000\000\000\000\000\000\000\000\000\000\000\000\000\000\020VB\001\000\000\000\000\000\000\000\000\000\000\000\000\000\000\000\000\000\000\000\000\000\000\000\000\000\000\000\000\000\000\000\000\000\000\000\000\000\000\000\000\000\000\000\000\000\000\000\000\000\000\000\000\000\000\000\000\000\000\000\000\000\000\000\000\000\000\000\000\000\000\000\000\000\000\000\000\000\000\000\000\000\000\000\000\000\000\000\000\000\000\000\000\000\000\000\000\000\000\000\000\000\000\000\000\000\000\000\000\000\000\000\000\000\000\000\000\000\000\000\000\000\000\000\000\000\000\000\000\000\000\000\000\000\000\000\000\000\000\000\000\000\000\000\000\000\000\000\000\000\000\000\000\000\000\000\000\000\000\000\000\000\000\000\000\000\000\000\000\000\000\000\000\000\000\000\000"
      }
    }
  }
}
node {
  name: "Reshape_12/shape"
  op: "Const"
  device: "/device:CPU:0"
  attr {
    key: "_output_shapes"
    value {
      list {
        shape {
          dim {
            size: 2
          }
        }
      }
    }
  }
  attr {
    key: "dtype"
    value {
      type: DT_INT32
    }
  }
  attr {
    key: "value"
    value {
      tensor {
        dtype: DT_INT32
        tensor_shape {
          dim {
            size: 2
          }
        }
        tensor_content: "\034\000\000\000\034\000\000\000"
      }
    }
  }
}
node {
  name: "Reshape_12"
  op: "Reshape"
  input: "Const_12"
  input: "Reshape_12/shape"
  device: "/device:CPU:0"
  attr {
    key: "T"
    value {
      type: DT_UINT8
    }
  }
  attr {
    key: "Tshape"
    value {
      type: DT_INT32
    }
  }
  attr {
    key: "_output_shapes"
    value {
      list {
        shape {
          dim {
            size: 28
          }
          dim {
            size: 28
          }
        }
      }
    }
  }
}
node {
  name: "Cast_12"
  op: "Cast"
  input: "Reshape_12"
  device: "/device:CPU:0"
  attr {
    key: "DstT"
    value {
      type: DT_HALF
    }
  }
  attr {
    key: "SrcT"
    value {
      type: DT_UINT8
    }
  }
  attr {
    key: "_output_shapes"
    value {
      list {
        shape {
          dim {
            size: 28
          }
          dim {
            size: 28
          }
        }
      }
    }
  }
}
node {
  name: "Const_13"
  op: "Const"
  device: "/device:CPU:0"
  attr {
    key: "_output_shapes"
    value {
      list {
        shape {
          dim {
            size: 784
          }
        }
      }
    }
  }
  attr {
    key: "dtype"
    value {
      type: DT_UINT8
    }
  }
  attr {
    key: "value"
    value {
      tensor {
        dtype: DT_UINT8
        tensor_shape {
          dim {
            size: 784
          }
        }
        tensor_content: "\000\000\000\000\000\000\000\000\000\000\000\000\000\000\000\000\000\000\000\000\000\000\000\000\000\000\000\000\000\000\000\000\000\000\000\000\000\000\000\000\000\000\000\000\000\000\000\000\000\000\000\000\000\000\000\000\000\000\000\000\000\000\000\000\000\000\000\000\000\000\000\000\000\000\000\000\000\000\000\000\000\000\000\000\000\000\000\000\000\000\000\000\000\000\000\000\000\000\000\000\000\000\000\000\000\000\000\000\000\000\000\000\000\000\000\000\000\000\000\000\000\000\000\000\000\000\000\000\000\000\000\000\000\000\000\000\000\000\000\000\000\000\000\000\000\000\000\000\000\000\000\000\000\000\000\000\000\000<\211\n\000\000\000\000\000\000\000\000\000\000\000\000\000\000\000\000\000\000\000\000\000\000\000=\305\377\377\037\000\000\000\000\000\000\000\000\000\000\000\000\000\000\000\000\000\000\000\000\000\000e\372\331\335\341\000\000\000\000\000\000\000\000\000\000\000\000\000\000\000\000\000\000\000\000\000\001\200\377\255\013\344\235\000\000\000\000\000\000\000\000\000\000\000\000\000\000\000\000\000\000\000\000\037\302\377\255Y\\\377[\000\000\000\000\000\000\000\000\000\000\000\000\000\000\000\000\006)R\244\375\377\377\377\377\377\377\337\255E\000\000\000\000\000\000\0002\367\326IJ\256\334\374\377\377\351\237I3.\301\240q\332\376\377\262B\010\000\000\000\000m\377\352\377\377\335\240zU:\207\037\000\0004\351\376\036\337\372\377\373\377\367\205\000\000\0009\377\327\375\241\002\000\000\"\324\3707\000\033\350\342a3\236\377\341^D\244\377.\000\000g\377\377\377\374\276p@\345\351;\000\n\313\375\377\377\377\377\373\336\277\244\343\377d\000\000\0077-4|\312\376\377\377[\000\002\251\373^DDF_\177\235\274\330\254K\001\000\000\000\000\000\000\000\000Z\377\212\000\r\263\377j\000\000\000\000\000\000\000\000\000\000\000\000\000\000\000\000\000\000\000\001\315\325\003!\323\370a\000\000\000\000\000\000\000\000\000\000\000\000\000\000\000\000\000\000\000\000U\377S:\350\354@\000\000\000\000\000\000\000\000\000\000\000\000\000\000\000\000\000\000\000\000\003\326\314d\371\322!\000\000\000\000\000\000\000\000\000\000\000\000\000\000\000\000\000\000\000\000\000]\377\333\377\261\r\000\000\000\000\000\000\000\000\000\000\000\000\000\000\000\000\000\000\000\000\000\000\206\377\364|\002\000\000\000\000\000\000\000\000\000\000\000\000\000\000\000\000\000\000\000\000\000\000\000%\205\032\000\000\000\000\000\000\000\000\000\000\000\000\000\000\000\000\000\000\000\000\000\000\000\000\000\000\000\000\000\000\000\000\000\000\000\000\000\000\000\000\000\000\000\000\000\000\000\000\000\000\000\000\000\000\000\000\000\000\000\000\000\000\000\000\000\000\000\000\000\000\000\000\000\000\000\000\000\000\000\000\000\000\000\000\000\000\000\000\000\000\000\000\000\000\000\000\000\000\000\000\000\000\000\000\000\000\000\000\000\000\000\000\000\000\000\000\000\000\000\000\000\000\000\000\000\000\000\000\000\000\000\000\000\000\000\000\000\000\000\000\000\000\000\000\000\000\000\000\000\000\000\000\000\000\000\000\000\000\000\000"
      }
    }
  }
}
node {
  name: "Reshape_13/shape"
  op: "Const"
  device: "/device:CPU:0"
  attr {
    key: "_output_shapes"
    value {
      list {
        shape {
          dim {
            size: 2
          }
        }
      }
    }
  }
  attr {
    key: "dtype"
    value {
      type: DT_INT32
    }
  }
  attr {
    key: "value"
    value {
      tensor {
        dtype: DT_INT32
        tensor_shape {
          dim {
            size: 2
          }
        }
        tensor_content: "\034\000\000\000\034\000\000\000"
      }
    }
  }
}
node {
  name: "Reshape_13"
  op: "Reshape"
  input: "Const_13"
  input: "Reshape_13/shape"
  device: "/device:CPU:0"
  attr {
    key: "T"
    value {
      type: DT_UINT8
    }
  }
  attr {
    key: "Tshape"
    value {
      type: DT_INT32
    }
  }
  attr {
    key: "_output_shapes"
    value {
      list {
        shape {
          dim {
            size: 28
          }
          dim {
            size: 28
          }
        }
      }
    }
  }
}
node {
  name: "Cast_13"
  op: "Cast"
  input: "Reshape_13"
  device: "/device:CPU:0"
  attr {
    key: "DstT"
    value {
      type: DT_HALF
    }
  }
  attr {
    key: "SrcT"
    value {
      type: DT_UINT8
    }
  }
  attr {
    key: "_output_shapes"
    value {
      list {
        shape {
          dim {
            size: 28
          }
          dim {
            size: 28
          }
        }
      }
    }
  }
}
node {
  name: "Const_14"
  op: "Const"
  device: "/device:CPU:0"
  attr {
    key: "_output_shapes"
    value {
      list {
        shape {
          dim {
            size: 784
          }
        }
      }
    }
  }
  attr {
    key: "dtype"
    value {
      type: DT_UINT8
    }
  }
  attr {
    key: "value"
    value {
      tensor {
        dtype: DT_UINT8
        tensor_shape {
          dim {
            size: 784
          }
        }
        tensor_content: "\000\000\000\000\000\000\000\000\000\000\000\000\000\000\000\000\000\000\000\000\000\000\000\000\000\000\000\000\000\000\000\000\000\000\000\000\000\000\000\000\000\017<\023\000\000\000\000\000\000\000\000\000\000\000\000\000\000\000\000\000\000\000\000\000\000\000\000\017\351\377\207\000\000\000\000\000\000\000\000\000\000\000\000\000\000\000\000\000\000\000\000\000\000\000\000~\375O\010\000\000\000\000\000\000\000\000\000\000\000\000\000\000\000\000\000\000\000\000\000\000\000\000\332\260\000\000\000\000\000\000\000\000\000\000\000\000\000\000\000\000\000\000\000\000\000\000\000\000\000\000\331\236\000\004\021\021\021\004\000\000\000\000\000\000\000\000\000\000\000\000F\247\247q#\000\000\000\317\315\215\354\377\377\377\353\207\035\000\000\000\000\000\000\000\000\003\242\377\341\324\376\377\324\253\273\332\377\377\273fff\244\371\373\245\n\000\000\000\000\000\000}\377y\004\000\031f\262\314\304\273\300\265-\000\000\000\000\030\201\372\260\003\000\000\000\000\023\367\236\000\000\000\000\000\000\000\000\000\000\000\000\000\000\000\000\000\000b\377j\000\000\000\000g\377%\000\000\000\000\000\000\000\000\000\000\000\000\000\000\000\000\000\000\000\276\334\003\000\000\000w\377\002\000\000\000\000\000\000\000\000\000\000\000\000\000\000\000\000\000\000\000K\377S\000\000\000r\377\010\000\000\000\000\000\000\000\000\000\000\000\000\000\000\000\000\000\000\000\001\325\312\000\000\000l\377\016\000\000\000\000\000\000\000\000\000\000\000\000\000\000\000\000\000\000\000\000f\377*\000\000f\377\024\000\000\000\000\000\000\000\000\000\000\000\000\000\000\000\000\000\000\000\000\026\377l\000\000>\377M\000\000\000\000\000\000\000\000\000\000\000\000\000\000\000\000\000\000\000\000\000\376{\000\000\003\344\266\000\000\000\000\000\000\000\000\000\000\000\000\000\000\000\000\000\000\000\000\000\376{\000\000\000n\3779\000\000\000\000\000\000\000\000\000\000\000\000\000\000\000\000\000\000\000\036\377f\000\000\000\010\343\273\000\000\000\000\000\000\000\000\000\000\000\000\000\000\000\000\000\000\000f\377\"\000\000\000\000i\377?\000\000\000\000\000\000\000\000\000\000\000\000\000\000\000\000\000\000\273\330\000\000\000\000\000\006\340\311\t\000\000\000\000\000\000\000\000\000\000\000\000\000\000\000\000P\377j\000\000\000\000\000\000L\373\262\004\000\000\000\000\000\000\000\000\000\000\000\000\000\000\033\350\312\003\000\000\000\000\000\000\000`\376\243\002\000\000\000\000\000\000\000\000\000\000\000\000\r\307\356$\000\000\000\000\000\000\000\000\000p\377\315E\002\000\000\000\000\000\000\000\000\000!\322\371H\000\000\000\000\000\000\000\000\000\000\000N\331\377\350\241jN7333=\210\354\352=\000\000\000\000\000\000\000\000\000\000\000\000\000\005S\234\343\377\377\377\377\377\377\377\367\256 \000\000\000\000\000\000\000\000\000\000\000\000\000\000\000\000\000\000\023,CDDDA\016\000\000\000\000\000\000\000\000\000\000\000\000\000\000\000\000\000\000\000\000\000\000\000\000\000\000\000\000\000\000\000\000\000\000\000\000"
      }
    }
  }
}
node {
  name: "Reshape_14/shape"
  op: "Const"
  device: "/device:CPU:0"
  attr {
    key: "_output_shapes"
    value {
      list {
        shape {
          dim {
            size: 2
          }
        }
      }
    }
  }
  attr {
    key: "dtype"
    value {
      type: DT_INT32
    }
  }
  attr {
    key: "value"
    value {
      tensor {
        dtype: DT_INT32
        tensor_shape {
          dim {
            size: 2
          }
        }
        tensor_content: "\034\000\000\000\034\000\000\000"
      }
    }
  }
}
node {
  name: "Reshape_14"
  op: "Reshape"
  input: "Const_14"
  input: "Reshape_14/shape"
  device: "/device:CPU:0"
  attr {
    key: "T"
    value {
      type: DT_UINT8
    }
  }
  attr {
    key: "Tshape"
    value {
      type: DT_INT32
    }
  }
  attr {
    key: "_output_shapes"
    value {
      list {
        shape {
          dim {
            size: 28
          }
          dim {
            size: 28
          }
        }
      }
    }
  }
}
node {
  name: "Cast_14"
  op: "Cast"
  input: "Reshape_14"
  device: "/device:CPU:0"
  attr {
    key: "DstT"
    value {
      type: DT_HALF
    }
  }
  attr {
    key: "SrcT"
    value {
      type: DT_UINT8
    }
  }
  attr {
    key: "_output_shapes"
    value {
      list {
        shape {
          dim {
            size: 28
          }
          dim {
            size: 28
          }
        }
      }
    }
  }
}
node {
  name: "Const_15"
  op: "Const"
  device: "/device:CPU:0"
  attr {
    key: "_output_shapes"
    value {
      list {
        shape {
          dim {
            size: 784
          }
        }
      }
    }
  }
  attr {
    key: "dtype"
    value {
      type: DT_UINT8
    }
  }
  attr {
    key: "value"
    value {
      tensor {
        dtype: DT_UINT8
        tensor_shape {
          dim {
            size: 784
          }
        }
        tensor_content: "\000\000\000\000\000\000\000\000\000\000\000\000\000\000\000\000\000\000\000\000\000\000\000\000\000\000\000\000\000\000\000\000\000\000\000\000\000\000\000\000\000\001u\022\000\000\000\000\000\000\000\000\000\000\000\000\000\000\000\000\000\000\000\000\000\000\000\000\000\221\377q\000\000\000\000\000\000\000\000\000\000\000\000\000\000\000\000\000\000\000\000\000\000\000\000#\375\377J\000\000\000\000\000\000\000\000\000\000\000\000\000\000\000\000\000\000\000\000\000\000\000\000o\377\377J\000\000\000\000\000\000\000\000\000\000\000\000\000\000\000\000\000\000\000\000\000\000\000\000\306\377\377J\000\000\000\000\000\000\000\000\000\000\000\000\000\000\000\000\000\000\000\000\000\000\000\006\372\376\377W\000\000\000\000\000\000\000\000\000\000\000\000\000\000\000\000\000\000\000\000\000\000\000A\377\300\367\203\000\000\000\000\000\000\000\000\000\000\000\000\000\000\000M\020\000\000\000\000\000\000\245\377T\315\262\000\000\000\000\000\000\000\000\000\000\000\000\000\000\035\377\353J\000\000\000\000\000\352\373\007\237\340\000\000\000\000\000\000\000\000\000\000\000\000\000\000\031\377\372\345\n\000\000\000\006\377\317\000q\3763333:DD(\000\000\000\000\000\000\014\377\253\376y\000\000\016|\377\310\254\337\377\377\377\377\377\377\377\377\371N\000\000\000\000\000\000\275\335\254\361\275\344\377\377\377\370\344\257\320\243DX\270L94\300\371\037\000\000\000\000\000b\377Z\277\276\227\302qoP\377+\207\342\001\037\255\r\000\000\177\376\024\000\000\000\000\0004\377\205\006\000\004\303<\000\007^G\005\r\000\000\000\006U\272\375\247\000\000\000\000\000\000\000\232\377\355\244\231\231\232\271\232\325\365\252\252\252\254\311\360\377\330t\t\000\000\000\000\000\000\000\001B\234\340\335\335\344\377\345\352\377\342\316\314\314\264\215>\001\000\000\000\000\000\000\000\000\000\000\000\000\000\000\000@\377:.\377N\000\000\000\000\000\000\000\000\000\000\000\000\000\000\000\000\000\000\000\000\000\000F\3774\026\377c\000\000\000\000\000\000\000\000\000\000\000\000\000\000\000\000\000\000\000\000\000\000K\377.\003\375x\000\000\000\000\000\000\000\000\000\000\000\000\000\000\000\000\000\000\000\000\000\000Q\377)\000\355\214\000\000\000\000\000\000\000\000\000\000\000\000\000\000\000\000\000\000\000\000\000\000V\377$\000\330\241\000\000\000\000\000\000\000\000\000\000\000\000\000\000\000\000\000\000\000\000\000\000[\377\037\000\304\266\000\000\000\000\000\000\000\000\000\000\000\000\000\000\000\000\000\000\000\000\000\000`\377\032\000\321\253\000\000\000\000\000\000\000\000\000\000\000\000\000\000\000\000\000\000\000\000\000\000e\377(I\372\177\000\000\000\000\000\000\000\000\000\000\000\000\000\000\000\000\000\000\000\000\000\0008\366\377\377\306\023\000\000\000\000\000\000\000\000\000\000\000\000\000\000\000\000\000\000\000\000\000\000\000(jm\t\000\000\000\000\000\000\000\000\000\000\000\000\000\000\000\000\000\000\000\000\000\000\000\000\000\000\000\000\000\000\000\000\000\000\000\000\000\000\000\000\000"
      }
    }
  }
}
node {
  name: "Reshape_15/shape"
  op: "Const"
  device: "/device:CPU:0"
  attr {
    key: "_output_shapes"
    value {
      list {
        shape {
          dim {
            size: 2
          }
        }
      }
    }
  }
  attr {
    key: "dtype"
    value {
      type: DT_INT32
    }
  }
  attr {
    key: "value"
    value {
      tensor {
        dtype: DT_INT32
        tensor_shape {
          dim {
            size: 2
          }
        }
        tensor_content: "\034\000\000\000\034\000\000\000"
      }
    }
  }
}
node {
  name: "Reshape_15"
  op: "Reshape"
  input: "Const_15"
  input: "Reshape_15/shape"
  device: "/device:CPU:0"
  attr {
    key: "T"
    value {
      type: DT_UINT8
    }
  }
  attr {
    key: "Tshape"
    value {
      type: DT_INT32
    }
  }
  attr {
    key: "_output_shapes"
    value {
      list {
        shape {
          dim {
            size: 28
          }
          dim {
            size: 28
          }
        }
      }
    }
  }
}
node {
  name: "Cast_15"
  op: "Cast"
  input: "Reshape_15"
  device: "/device:CPU:0"
  attr {
    key: "DstT"
    value {
      type: DT_HALF
    }
  }
  attr {
    key: "SrcT"
    value {
      type: DT_UINT8
    }
  }
  attr {
    key: "_output_shapes"
    value {
      list {
        shape {
          dim {
            size: 28
          }
          dim {
            size: 28
          }
        }
      }
    }
  }
}
node {
  name: "Const_16"
  op: "Const"
  device: "/device:CPU:0"
  attr {
    key: "_output_shapes"
    value {
      list {
        shape {
          dim {
            size: 784
          }
        }
      }
    }
  }
  attr {
    key: "dtype"
    value {
      type: DT_UINT8
    }
  }
  attr {
    key: "value"
    value {
      tensor {
        dtype: DT_UINT8
        tensor_shape {
          dim {
            size: 784
          }
        }
        tensor_content: "\000\000\000\000\000\000\000\000\000\000\000\000\000\000\000\000\000\000\000\000\000\000\000\000\000\000\000\000\000\000\000\000\000\000\000\000\000\000\000\013?m\032\000\000\000\000\000\000\000\000\000\000\000\000\000\000\000\000\000\000\000\000\000\000\000\031\363\377\377\275\000\000\000\000\000\000\000\000\000\000\000\000\000\000\000\000\000\000\000\000\000\000\000\026\377\212\257\322\000\000\000\000\000\000\000\000\000\000\000\000\000\000\000\000\000\000\000\000\000\000\000\000\364\205\234\334\000\000\000\000\000\000\000\000\000\000\000\000\000\000\000\000\000\000\000\000\000\000\000\000\325\246\221\346\000\000\000\000\000\000\000\000\000\000\000\000\000\000\000\000\000\000\000\000\000\000\000\000\264\307\206\361\000\000\000\000\000\000\000\000\000\000\000\000\000\000\000\000\000\000\000\000\000\000\000\000\223\347f\377 \000\000\000\000\000\000\000\000\000\000\000\000\000\000\000\000\000\000\000\000\000\000\025\231\376(\377i!\000\000\000\000\000\000\000\000\000\000\000\000\000\000\000\000\030\243\357\377\350\337\377\361\r\324\357\377\312\362\377\353\244)\000\000\000\000\000\000\000\000\0007\344\361\223w\227\313\310\037\000\211\375\376\344\214w\227\353\373\224\010\000\000\000\000\000\000]\370\327\'\000\000\000\000\000\000\000\337\377\376?\000\000\000\020\213\376p\000\000\000\000\000\000\356\277\016\000\000\000\000\000\000\000\000\033?3\000\000\000\000\000\000\271\340\004\000\000\000\000\016\377m\000\000\000\000\000\000\000\000\000\000\000\000\000\000\000\000\000\000W\377,\000\000\000\000(\377U\000\000\000\000\000\000\000\000\000\000\000\000\000\000\000\000\000\000R\377(\000\000\000\000\n\371~\000\000\000\000\000\000\000\000\000\000\000\000\000\000\000\000\000\000Z\377 \000\000\000\000\000\311\272\000\000\000\000\000\000\000\000\000\000\000\000\000\000\000\000\000\000a\377\030\000\000\000\000\000\214\363\004\000\000\000\000\000\000\000\000\000\000\000\000\000\000\000\000\000i\377\021\000\000\000\000\000P\3773\000\000\000\000\000\000\000\000\000\000\000\000\000\000\000\000\000p\377\t\000\000\000\000\000\025\375y\000\000\000\000\000\000\000\000\000\000\000\000\000\000\000\000\000\203\372\003\000\000\000\000\000\000\262\351\014\000\000\000\000\000\000\000\000\000\000\000\000\000\000\000\005\331\274\000\000\000\000\000\000\000/\375\214\000\000\000\000\000\000\000\000\000\000\000\000\000\000\000x\376B\000\000\000\000\000\000\000\000\216\377u\000\000\000\000\000\000\000\000\000\000\000\000\000c\370\243\000\000\000\000\000\000\000\000\000\002\237\377\263\033\000\000\000\000\000\000\000\000\000\031\241\377\261\r\000\000\000\000\000\000\000\000\000\000\001g\361\360\230K\t\000\017\021\033X\237\366\371w\001\000\000\000\000\000\000\000\000\000\000\000\000\000\035\240\355\377\377\377\377\377\377\377\347\223\036\000\000\000\000\000\000\000\000\000\000\000\000\000\000\000\000\000\004?twqfb.\001\000\000\000\000\000\000\000\000\000\000\000\000\000\000\000\000\000\000\000\000\000\000\000\000\000\000\000\000\000\000\000\000\000\000\000\000\000"
      }
    }
  }
}
node {
  name: "Reshape_16/shape"
  op: "Const"
  device: "/device:CPU:0"
  attr {
    key: "_output_shapes"
    value {
      list {
        shape {
          dim {
            size: 2
          }
        }
      }
    }
  }
  attr {
    key: "dtype"
    value {
      type: DT_INT32
    }
  }
  attr {
    key: "value"
    value {
      tensor {
        dtype: DT_INT32
        tensor_shape {
          dim {
            size: 2
          }
        }
        tensor_content: "\034\000\000\000\034\000\000\000"
      }
    }
  }
}
node {
  name: "Reshape_16"
  op: "Reshape"
  input: "Const_16"
  input: "Reshape_16/shape"
  device: "/device:CPU:0"
  attr {
    key: "T"
    value {
      type: DT_UINT8
    }
  }
  attr {
    key: "Tshape"
    value {
      type: DT_INT32
    }
  }
  attr {
    key: "_output_shapes"
    value {
      list {
        shape {
          dim {
            size: 28
          }
          dim {
            size: 28
          }
        }
      }
    }
  }
}
node {
  name: "Cast_16"
  op: "Cast"
  input: "Reshape_16"
  device: "/device:CPU:0"
  attr {
    key: "DstT"
    value {
      type: DT_HALF
    }
  }
  attr {
    key: "SrcT"
    value {
      type: DT_UINT8
    }
  }
  attr {
    key: "_output_shapes"
    value {
      list {
        shape {
          dim {
            size: 28
          }
          dim {
            size: 28
          }
        }
      }
    }
  }
}
node {
  name: "Const_17"
  op: "Const"
  device: "/device:CPU:0"
  attr {
    key: "_output_shapes"
    value {
      list {
        shape {
          dim {
            size: 784
          }
        }
      }
    }
  }
  attr {
    key: "dtype"
    value {
      type: DT_UINT8
    }
  }
  attr {
    key: "value"
    value {
      tensor {
        dtype: DT_UINT8
        tensor_shape {
          dim {
            size: 784
          }
        }
        tensor_content: "\000\000\000\000\000\000\000\000\000\000\000\000\000\000\000\000\000\000\000\000\000\000\000\000\000\000\000\000\000\000\000\000\000\000\000\000\000\000\000\000\000\000\000\000\000\000\000\000\000\000\000\000\000\000\000\000\000\000\000\000\000\000\000\000\000\000\000\000\000\000\000\000\000\000\000\000\000\000\000\000\000\000\000\000\000\000\000\000\000\000\000\000\000\000\000\000\000\000\000\000\000\000\000\000\000\000\000\000\000\000\000\000\000\000\000\000\000\000\000\000\000\000\000\000\000\000\000\000\000y\226\000\000\000\000\000\000\000\000\000\000\000\000\000\000\000\000\000\000\000\000\021c\265\367\264\003\232\374\033\000\000\000\000\000\000\000\000\000\000\000\000\000\000\000\000\000\000\000\316\377\377\377\373\032\206\377y\000\000\000\000\000\000\000\000\000\000\000\000\000\000\000\000\000\000\002\353\377\377\365UA\366\376\331\001\000\000\000\000\000\000\000\000\000\000\000\000\000\000\010\004\000\000H\222\324\327\227\370\315f\377/\000\000\000\000\000\000\000\000\000\000\000\000\000\010\307\337\3623\000\036\324\375\377\376N\004[\006\000\000\000\000\000\000\000\000\000\000\000\000Z\340\377\377\360A\242\372\370\245,\331\274\000\000\000\000\000\000\000\000\000\000\000\000\000\004\232\377\305<p\367\376\362\206\030\000\000\211\373\273\000\000\000\r\000\000\000\000\000\000\000\n\262\376{\000\000\000-\344\346\026\000\000%\321\377\372\332\353\374\377\315\037\000\000\000\000\000\260\373`\000\000\000\000\000+\376l\000V\362\350N\232\236\215|t\364\225\000\000\000\000\"\376u\000\000\000\000\000\000\000\317\270<\372\273\027\000\000\000\000\000\000\226\364\020\000\000\000F\3772\000\000\000\000\000\000\000\262\325\345\323\013\000\000\000\000\000\000\000(\376t\000\000\000Q\377(\000\000\000\000\000\000\002\355\306\374\'\000\000\000\000\000\000\000\000\000\267\337\003\000\0001\376\213\003\000\000\000\000\000h\377\322\307\000\000\000\000\000\000\000\000\000\000H\377M\000\000\000\225\377\311/\000\000\001i\367\257\337\244\000\000\000\000\000\000\000\000\000\000#\377Z\000\000\000\000Q\344\375\301\204\305\377\257\017\245\341\000\000\000\000\000\000\000\000\000\000\211\377/\000\000\000\000\000\016u\313\373\317Z\000\000a\377/\000\000\000\000\000\000\000\003\231\377\223\001\000\000\000\000\000\000\000\000\003\000\000\000\000\017\352\307\024\000\000\000\000\nR\273\376z\000\000\000\000\000\000\000\000\000\000\000\000\000\000\000\000J\364\346\243\231\241\267\366\377\347^\000\000\000\000\000\000\000\000\000\000\000\000\000\000\000\000\000\000,\247\332\335\333\307\212:\002\000\000\000\000\000\000\000\000\000\000\000\000\000\000\000\000\000\000\000\000\000\000\000\000\000\000\000\000\000\000\000\000\000\000\000\000\000\000\000\000\000\000\000\000\000\000\000\000\000\000\000\000\000\000\000\000\000\000\000\000\000\000\000\000\000\000\000\000\000\000\000\000\000\000\000\000\000\000\000\000\000\000\000\000\000\000\000\000\000\000\000\000\000\000\000\000\000\000\000\000\000\000\000\000\000\000\000\000\000\000\000\000\000\000\000\000\000"
      }
    }
  }
}
node {
  name: "Reshape_17/shape"
  op: "Const"
  device: "/device:CPU:0"
  attr {
    key: "_output_shapes"
    value {
      list {
        shape {
          dim {
            size: 2
          }
        }
      }
    }
  }
  attr {
    key: "dtype"
    value {
      type: DT_INT32
    }
  }
  attr {
    key: "value"
    value {
      tensor {
        dtype: DT_INT32
        tensor_shape {
          dim {
            size: 2
          }
        }
        tensor_content: "\034\000\000\000\034\000\000\000"
      }
    }
  }
}
node {
  name: "Reshape_17"
  op: "Reshape"
  input: "Const_17"
  input: "Reshape_17/shape"
  device: "/device:CPU:0"
  attr {
    key: "T"
    value {
      type: DT_UINT8
    }
  }
  attr {
    key: "Tshape"
    value {
      type: DT_INT32
    }
  }
  attr {
    key: "_output_shapes"
    value {
      list {
        shape {
          dim {
            size: 28
          }
          dim {
            size: 28
          }
        }
      }
    }
  }
}
node {
  name: "Cast_17"
  op: "Cast"
  input: "Reshape_17"
  device: "/device:CPU:0"
  attr {
    key: "DstT"
    value {
      type: DT_HALF
    }
  }
  attr {
    key: "SrcT"
    value {
      type: DT_UINT8
    }
  }
  attr {
    key: "_output_shapes"
    value {
      list {
        shape {
          dim {
            size: 28
          }
          dim {
            size: 28
          }
        }
      }
    }
  }
}
node {
  name: "Const_18"
  op: "Const"
  device: "/device:CPU:0"
  attr {
    key: "_output_shapes"
    value {
      list {
        shape {
          dim {
            size: 784
          }
        }
      }
    }
  }
  attr {
    key: "dtype"
    value {
      type: DT_UINT8
    }
  }
  attr {
    key: "value"
    value {
      tensor {
        dtype: DT_UINT8
        tensor_shape {
          dim {
            size: 784
          }
        }
        tensor_content: "\000\000\000\000\000\000\000\000\000\000\000\000\000\000\000\000\000\000\000\000\000\000\000\000\000\000\000\000\000\000\000\000\000\000\000\000\000\000\000\000\000\000\000\000\000\000\000\000\000\000\000\000\000\000\000\000\000\000\000\000\000\000\000\000\000\000\000\000\000\000\000\000\000\000\000\000\000\000\000\000\000\000\000\000\000\000\000\000\000\000\000\000\000\000\000\000\000\000\000\000\000\000\000\000\000\000\000\000\000\000\000\000\000\000\000\000\000\000\000\000\000\000\000\000\000\000\000\000\000\000\000\000\000\000\000\000\000\000\000\000\000\000\000\000\000\000\000\000\000\000\000W\276\037\000\000\000\000\000\000\000\000\000\000\000\000\000\000\000\000\000\000\000\000\000\000\000\000r\375\377e\000\000\000\000\000\000\000\000\000\000\016\2403\000\000\000\000\000\000\000\000\000\001\215\377\243\373|\000\000\000\000\000\000\000\000\000\013\304\377o\000\000\000\000\000\000\000\000\001\241\377\211\001\364\204\000\000\000\000\000\000\000\000\t\275\377\3775\000\000\000\000\000\000\000\000y\377u\000\002\376x\000\000\000\000\000\000\000\007\270\373\376\306\000\000\000\000\000\000\000\000E\374\241\000\000\016\377k\000\000\r\004\000\000\005\261\374\252\377W\000\000\000\000\000\000\000\"\355\317Z\203\257\333\377\337\314\314\355\351\254\253\342\377{\343\312\003\000\000\000\000\000 ^\336\374\377\377\370\316\245\324\263\252\252\255\275\314\343\377\373\341\373/\000\000\000\000\000\230\377\377\351\263h+\004\000\000\000\000\000\000\000\000\000!H\230\377\216\000\000\000\000\000K\377\216%\000\000\000\000\000\000\000\000\000\000\000\000\000\000\000\000\237\375\020\000\000\000\000\000H\377>\000\000\000\000\000\000.\030\000\000\000\000\000\000\036`\243\362\277\000\000\000\000\000\000\t\354\276\t\000\000\000\000\000\311\324Id\205\246\307\350\377\377\340\233\030\000\000\000\000\000\000\000W\376\340Z\007dUv\316\377\377\377\366\325\264\223f$\000\000\000\000\000\000\000\000\000\000\0008\306\377\372\377\377\376\330\302\376`\000\000\000\000\000\000\000\000\000\000\000\000\000\000\000\000\000\000\001A\200}\241\341\377\304\357\354\034\000\000\000\000\000\000\000\000\000\000\000\000\000\000\000\000\000\000\000\000\000\000\003a\346\377\377\277\003\000\000\000\000\000\000\000\000\000\000\000\000\000\000\000\000\000\000\000\000\000\000\000\014\205\367\377w\000\000\000\000\000\000\000\000\000\000\000\000\000\000\000\000\000\000\000\000\000\000\000\000\000 \244~\000\000\000\000\000\000\000\000\000\000\000\000\000\000\000\000\000\000\000\000\000\000\000\000\000\000\000\000\000\000\000\000\000\000\000\000\000\000\000\000\000\000\000\000\000\000\000\000\000\000\000\000\000\000\000\000\000\000\000\000\000\000\000\000\000\000\000\000\000\000\000\000\000\000\000\000\000\000\000\000\000\000\000\000\000\000\000\000\000\000\000\000\000\000\000\000\000\000\000\000\000\000\000\000\000\000\000\000\000\000\000\000\000\000\000\000\000\000\000\000\000\000\000\000\000\000\000\000\000\000\000\000\000\000\000\000\000\000\000\000\000\000\000\000\000\000\000\000\000\000\000\000"
      }
    }
  }
}
node {
  name: "Reshape_18/shape"
  op: "Const"
  device: "/device:CPU:0"
  attr {
    key: "_output_shapes"
    value {
      list {
        shape {
          dim {
            size: 2
          }
        }
      }
    }
  }
  attr {
    key: "dtype"
    value {
      type: DT_INT32
    }
  }
  attr {
    key: "value"
    value {
      tensor {
        dtype: DT_INT32
        tensor_shape {
          dim {
            size: 2
          }
        }
        tensor_content: "\034\000\000\000\034\000\000\000"
      }
    }
  }
}
node {
  name: "Reshape_18"
  op: "Reshape"
  input: "Const_18"
  input: "Reshape_18/shape"
  device: "/device:CPU:0"
  attr {
    key: "T"
    value {
      type: DT_UINT8
    }
  }
  attr {
    key: "Tshape"
    value {
      type: DT_INT32
    }
  }
  attr {
    key: "_output_shapes"
    value {
      list {
        shape {
          dim {
            size: 28
          }
          dim {
            size: 28
          }
        }
      }
    }
  }
}
node {
  name: "Cast_18"
  op: "Cast"
  input: "Reshape_18"
  device: "/device:CPU:0"
  attr {
    key: "DstT"
    value {
      type: DT_HALF
    }
  }
  attr {
    key: "SrcT"
    value {
      type: DT_UINT8
    }
  }
  attr {
    key: "_output_shapes"
    value {
      list {
        shape {
          dim {
            size: 28
          }
          dim {
            size: 28
          }
        }
      }
    }
  }
}
node {
  name: "Const_19"
  op: "Const"
  device: "/device:CPU:0"
  attr {
    key: "_output_shapes"
    value {
      list {
        shape {
          dim {
            size: 784
          }
        }
      }
    }
  }
  attr {
    key: "dtype"
    value {
      type: DT_UINT8
    }
  }
  attr {
    key: "value"
    value {
      tensor {
        dtype: DT_UINT8
        tensor_shape {
          dim {
            size: 784
          }
        }
